{
  "version": "1.0",
  "truncation": null,
  "padding": null,
  "added_tokens": [
    {
      "id": 0,
      "content": "[PAD]",
      "single_word": false,
      "lstrip": false,
      "rstrip": false,
      "normalized": false,
      "special": true
    },
    {
      "id": 1,
      "content": "[UNK]",
      "single_word": false,
      "lstrip": false,
      "rstrip": false,
      "normalized": false,
      "special": true
    },
    {
      "id": 2,
      "content": "[CLS]",
      "single_word": false,
      "lstrip": false,
      "rstrip": false,
      "normalized": false,
      "special": true
    },
    {
      "id": 3,
      "content": "[SEP]",
      "single_word": false,
      "lstrip": false,
      "rstrip": false,
      "normalized": false,
      "special": true
    },
    {
      "id": 4,
      "content": "[MASK]",
      "single_word": false,
      "lstrip": false,
      "rstrip": false,
      "normalized": false,
      "special": true
    }
  ],
  "normalizer": {
    "type": "BertNormalizer",
    "clean_text": true,
    "handle_chinese_chars": true,
    "strip_accents": null,
    "lowercase": true
  },
  "pre_tokenizer": {
    "type": "BertPreTokenizer"
  },
  "post_processor": {
    "type": "TemplateProcessing",
    "single": [
      {
        "SpecialToken": {
          "id": "[CLS]",
          "type_id": 0
        }
      },
      {
        "Sequence": {
          "id": "A",
          "type_id": 0
        }
      },
      {
        "SpecialToken": {
          "id": "[SEP]",
          "type_id": 0
        }
      }
    ],
    "pair": [
      {
        "SpecialToken": {
          "id": "[CLS]",
          "type_id": 0
        }
      },
      {
        "Sequence": {
          "id": "A",
          "type_id": 0
        }
      },
      {
        "SpecialToken": {
          "id": "[SEP]",
          "type_id": 0
        }
      },
      {
        "Sequence": {
          "id": "B",
          "type_id": 1
        }
      },
      {
        "SpecialToken": {
          "id": "[SEP]",
          "type_id": 1
        }
      }
    ],
    "special_tokens": {
      "[CLS]": {
        "id": "[CLS]",
        "ids": [
          2
        ],
        "tokens": [
          "[CLS]"
        ]
      },
      "[SEP]": {
        "id": "[SEP]",
        "ids": [
          3
        ],
        "tokens": [
          "[SEP]"
        ]
      }
    }
  },
  "decoder": {
    "type": "WordPiece",
    "prefix": "##",
    "cleanup": true
  },
  "model": {
    "type": "WordPiece",
    "unk_token": "[UNK]",
    "continuing_subword_prefix": "##",
    "max_input_chars_per_word": 100,
    "vocab": {
      "[PAD]": 0,
      "[UNK]": 1,
      "[CLS]": 2,
      "[SEP]": 3,
      "[MASK]": 4,
      "!": 5,
      "\"": 6,
      "#": 7,
      "$": 8,
      "%": 9,
      "&": 10,
      "'": 11,
      "(": 12,
      ")": 13,
      "*": 14,
      "+": 15,
      ",": 16,
      "-": 17,
      ".": 18,
      "/": 19,
      "0": 20,
      "1": 21,
      "2": 22,
      "3": 23,
      "4": 24,
      "5": 25,
      "6": 26,
      "7": 27,
      "8": 28,
      "9": 29,
      ":": 30,
      ";": 31,
      "<": 32,
      "=": 33,
      ">": 34,
      "?": 35,
      "@": 36,
      "[": 37,
      "\\": 38,
      "]": 39,
      "^": 40,
      "_": 41,
      "`": 42,
      "a": 43,
      "b": 44,
      "c": 45,
      "d": 46,
      "e": 47,
      "f": 48,
      "g": 49,
      "h": 50,
      "i": 51,
      "j": 52,
      "k": 53,
      "l": 54,
      "m": 55,
      "n": 56,
      "o": 57,
      "p": 58,
      "q": 59,
      "r": 60,
      "s": 61,
      "t": 62,
      "u": 63,
      "v": 64,
      "w": 65,
      "x": 66,
      "y": 67,
      "z": 68,
      "{": 69,
      "|": 70,
      "}": 71,
      "~": 72,
      "¡": 73,
      "¢": 74,
      "£": 75,
      "¤": 76,
      "¥": 77,
      "¦": 78,
      "§": 79,
      "¨": 80,
      "©": 81,
      "ª": 82,
      "«": 83,
      "¬": 84,
      "®": 85,
      "¯": 86,
      "°": 87,
      "±": 88,
      "²": 89,
      "³": 90,
      "´": 91,
      "µ": 92,
      "¶": 93,
      "·": 94,
      "¸": 95,
      "¹": 96,
      "º": 97,
      "»": 98,
      "¼": 99,
      "½": 100,
      "¾": 101,
      "¿": 102,
      "×": 103,
      "ß": 104,
      "æ": 105,
      "ð": 106,
      "÷": 107,
      "ø": 108,
      "þ": 109,
      "đ": 110,
      "ħ": 111,
      "ı": 112,
      "ĳ": 113,
      "ĸ": 114,
      "ŀ": 115,
      "ł": 116,
      "ŋ": 117,
      "œ": 118,
      "ŧ": 119,
      "ſ": 120,
      "ƃ": 121,
      "ƅ": 122,
      "ƌ": 123,
      "ƍ": 124,
      "ƒ": 125,
      "ƕ": 126,
      "ƙ": 127,
      "ƚ": 128,
      "ƣ": 129,
      "ƥ": 130,
      "ƨ": 131,
      "ƫ": 132,
      "ƭ": 133,
      "ƴ": 134,
      "ƶ": 135,
      "ƹ": 136,
      "ƺ": 137,
      "ƻ": 138,
      "ƽ": 139,
      "ƾ": 140,
      "ƿ": 141,
      "ǀ": 142,
      "ǁ": 143,
      "ǃ": 144,
      "ǆ": 145,
      "ǉ": 146,
      "ǌ": 147,
      "ǝ": 148,
      "ǥ": 149,
      "ǳ": 150,
      "ȡ": 151,
      "ȣ": 152,
      "ȥ": 153,
      "ȴ": 154,
      "ȵ": 155,
      "ȶ": 156,
      "ȷ": 157,
      "ȸ": 158,
      "ȹ": 159,
      "ȼ": 160,
      "ȿ": 161,
      "ɂ": 162,
      "ɇ": 163,
      "ɉ": 164,
      "ɋ": 165,
      "ɍ": 166,
      "ɏ": 167,
      "ɐ": 168,
      "ɑ": 169,
      "ɒ": 170,
      "ɓ": 171,
      "ɔ": 172,
      "ɗ": 173,
      "ɘ": 174,
      "ə": 175,
      "ɛ": 176,
      "ɝ": 177,
      "ɟ": 178,
      "ɡ": 179,
      "ɢ": 180,
      "ɣ": 181,
      "ɤ": 182,
      "ɥ": 183,
      "ɦ": 184,
      "ɧ": 185,
      "ɨ": 186,
      "ɪ": 187,
      "ɫ": 188,
      "ɬ": 189,
      "ɯ": 190,
      "ɱ": 191,
      "ɲ": 192,
      "ɳ": 193,
      "ɴ": 194,
      "ɵ": 195,
      "ɶ": 196,
      "ɸ": 197,
      "ɹ": 198,
      "ɺ": 199,
      "ɻ": 200,
      "ɼ": 201,
      "ɽ": 202,
      "ɾ": 203,
      "ɿ": 204,
      "ʀ": 205,
      "ʃ": 206,
      "ʆ": 207,
      "ʇ": 208,
      "ʈ": 209,
      "ʉ": 210,
      "ʊ": 211,
      "ʋ": 212,
      "ʌ": 213,
      "ʍ": 214,
      "ʎ": 215,
      "ʏ": 216,
      "ʑ": 217,
      "ʒ": 218,
      "ʓ": 219,
      "ʔ": 220,
      "ʖ": 221,
      "ʗ": 222,
      "ʙ": 223,
      "ʜ": 224,
      "ʝ": 225,
      "ʞ": 226,
      "ʟ": 227,
      "ʠ": 228,
      "ʡ": 229,
      "ʢ": 230,
      "ʣ": 231,
      "ʤ": 232,
      "ʥ": 233,
      "ʦ": 234,
      "ʧ": 235,
      "ʨ": 236,
      "ʩ": 237,
      "ʬ": 238,
      "ʯ": 239,
      "ʰ": 240,
      "ʱ": 241,
      "ʲ": 242,
      "ʳ": 243,
      "ʴ": 244,
      "ʵ": 245,
      "ʷ": 246,
      "ʸ": 247,
      "ʹ": 248,
      "ʺ": 249,
      "ʻ": 250,
      "ʼ": 251,
      "ʽ": 252,
      "ʾ": 253,
      "ʿ": 254,
      "ˀ": 255,
      "ˁ": 256,
      "˄": 257,
      "ˆ": 258,
      "ˇ": 259,
      "ˉ": 260,
      "ˊ": 261,
      "ˋ": 262,
      "ˍ": 263,
      "ˏ": 264,
      "˒": 265,
      "˖": 266,
      "˚": 267,
      "˛": 268,
      "˜": 269,
      "˝": 270,
      "˟": 271,
      "ˡ": 272,
      "ˣ": 273,
      "ˤ": 274,
      "˥": 275,
      "˦": 276,
      "˨": 277,
      "˩": 278,
      "˪": 279,
      "˫": 280,
      "˭": 281,
      "ˮ": 282,
      "˰": 283,
      "˱": 284,
      "˲": 285,
      "˳": 286,
      "˴": 287,
      "˵": 288,
      "˶": 289,
      "˷": 290,
      "˸": 291,
      "˹": 292,
      "˺": 293,
      "˻": 294,
      "˼": 295,
      "˽": 296,
      "˾": 297,
      "˿": 298,
      "ͱ": 299,
      "ͳ": 300,
      "͵": 301,
      "ͷ": 302,
      "͸": 303,
      "͹": 304,
      "ͺ": 305,
      "ͻ": 306,
      "ͼ": 307,
      "ͽ": 308,
      "΂": 309,
      "΍": 310,
      "α": 311,
      "β": 312,
      "γ": 313,
      "δ": 314,
      "ε": 315,
      "ζ": 316,
      "η": 317,
      "θ": 318,
      "ι": 319,
      "κ": 320,
      "λ": 321,
      "μ": 322,
      "ν": 323,
      "ξ": 324,
      "ο": 325,
      "π": 326,
      "ρ": 327,
      "ς": 328,
      "σ": 329,
      "τ": 330,
      "υ": 331,
      "φ": 332,
      "χ": 333,
      "ψ": 334,
      "ω": 335,
      "ϑ": 336,
      "ϒ": 337,
      "ϝ": 338,
      "ϡ": 339,
      "ϣ": 340,
      "ϥ": 341,
      "ϧ": 342,
      "ϩ": 343,
      "ϫ": 344,
      "ϯ": 345,
      "ϰ": 346,
      "ϱ": 347,
      "ϲ": 348,
      "ϳ": 349,
      "ϵ": 350,
      "϶": 351,
      "ϸ": 352,
      "ϻ": 353,
      "ϼ": 354,
      "а": 355,
      "б": 356,
      "в": 357,
      "г": 358,
      "д": 359,
      "е": 360,
      "ж": 361,
      "з": 362,
      "и": 363,
      "к": 364,
      "л": 365,
      "м": 366,
      "н": 367,
      "о": 368,
      "п": 369,
      "р": 370,
      "с": 371,
      "т": 372,
      "у": 373,
      "ф": 374,
      "х": 375,
      "ц": 376,
      "ч": 377,
      "ш": 378,
      "щ": 379,
      "ъ": 380,
      "ы": 381,
      "ь": 382,
      "э": 383,
      "ю": 384,
      "я": 385,
      "ђ": 386,
      "є": 387,
      "ѕ": 388,
      "і": 389,
      "ј": 390,
      "љ": 391,
      "њ": 392,
      "џ": 393,
      "ѡ": 394,
      "ѣ": 395,
      "ѥ": 396,
      "ѧ": 397,
      "ѩ": 398,
      "ѫ": 399,
      "ѭ": 400,
      "ѯ": 401,
      "ѱ": 402,
      "ѳ": 403,
      "ѵ": 404,
      "ѹ": 405,
      "ѻ": 406,
      "ѽ": 407,
      "ѿ": 408,
      "ҁ": 409,
      "҂": 410,
      "҈": 411,
      "҉": 412,
      "ҋ": 413,
      "ҍ": 414,
      "ҏ": 415,
      "ґ": 416,
      "ғ": 417,
      "ҕ": 418,
      "җ": 419,
      "ҙ": 420,
      "қ": 421,
      "ҝ": 422,
      "ҟ": 423,
      "ҡ": 424,
      "ң": 425,
      "ҥ": 426,
      "ҧ": 427,
      "ҩ": 428,
      "ҫ": 429,
      "ҭ": 430,
      "ү": 431,
      "ұ": 432,
      "ҳ": 433,
      "ҵ": 434,
      "ҷ": 435,
      "ҹ": 436,
      "һ": 437,
      "ҽ": 438,
      "ҿ": 439,
      "ӄ": 440,
      "ӈ": 441,
      "ӊ": 442,
      "ӌ": 443,
      "ӏ": 444,
      "ӕ": 445,
      "ә": 446,
      "ӡ": 447,
      "ө": 448,
      "ӷ": 449,
      "ӻ": 450,
      "ӽ": 451,
      "ӿ": 452,
      "ԃ": 453,
      "ԅ": 454,
      "ԋ": 455,
      "ԏ": 456,
      "ԑ": 457,
      "ԕ": 458,
      "ԗ": 459,
      "ԙ": 460,
      "ԛ": 461,
      "ԝ": 462,
      "ԡ": 463,
      "ԣ": 464,
      "ԥ": 465,
      "ԩ": 466,
      "ԫ": 467,
      "ԭ": 468,
      "ԯ": 469,
      "԰": 470,
      "՘": 471,
      "ՙ": 472,
      "՛": 473,
      "՝": 474,
      "ՠ": 475,
      "ա": 476,
      "բ": 477,
      "գ": 478,
      "դ": 479,
      "ե": 480,
      "զ": 481,
      "է": 482,
      "ը": 483,
      "թ": 484,
      "ժ": 485,
      "ի": 486,
      "լ": 487,
      "խ": 488,
      "ծ": 489,
      "կ": 490,
      "հ": 491,
      "ձ": 492,
      "ղ": 493,
      "ճ": 494,
      "մ": 495,
      "յ": 496,
      "ն": 497,
      "շ": 498,
      "ո": 499,
      "չ": 500,
      "պ": 501,
      "ջ": 502,
      "ռ": 503,
      "ս": 504,
      "վ": 505,
      "տ": 506,
      "ր": 507,
      "ց": 508,
      "ւ": 509,
      "փ": 510,
      "ք": 511,
      "օ": 512,
      "ֆ": 513,
      "և": 514,
      "։": 515,
      "֎": 516,
      "֐": 517,
      "־": 518,
      "׃": 519,
      "׈": 520,
      "׊": 521,
      "׌": 522,
      "׍": 523,
      "א": 524,
      "ב": 525,
      "ג": 526,
      "ד": 527,
      "ה": 528,
      "ו": 529,
      "ז": 530,
      "ח": 531,
      "ט": 532,
      "י": 533,
      "ך": 534,
      "כ": 535,
      "ל": 536,
      "ם": 537,
      "מ": 538,
      "ן": 539,
      "נ": 540,
      "ס": 541,
      "ע": 542,
      "ף": 543,
      "פ": 544,
      "ץ": 545,
      "צ": 546,
      "ק": 547,
      "ר": 548,
      "ש": 549,
      "ת": 550,
      "׫": 551,
      "׬": 552,
      "׭": 553,
      "׮": 554,
      "ׯ": 555,
      "װ": 556,
      "ױ": 557,
      "ײ": 558,
      "״": 559,
      "׶": 560,
      "׷": 561,
      "׸": 562,
      "׺": 563,
      "׻": 564,
      "׼": 565,
      "׽": 566,
      "؆": 567,
      "؊": 568,
      "؋": 569,
      "،": 570,
      "؍": 571,
      "؎": 572,
      "؏": 573,
      "؛": 574,
      "؟": 575,
      "ؠ": 576,
      "ء": 577,
      "ا": 578,
      "ب": 579,
      "ة": 580,
      "ت": 581,
      "ث": 582,
      "ج": 583,
      "ح": 584,
      "خ": 585,
      "د": 586,
      "ذ": 587,
      "ر": 588,
      "ز": 589,
      "س": 590,
      "ش": 591,
      "ص": 592,
      "ض": 593,
      "ط": 594,
      "ظ": 595,
      "ع": 596,
      "غ": 597,
      "ػ": 598,
      "ؽ": 599,
      "ؾ": 600,
      "ؿ": 601,
      "ـ": 602,
      "ف": 603,
      "ق": 604,
      "ك": 605,
      "ل": 606,
      "م": 607,
      "ن": 608,
      "ه": 609,
      "و": 610,
      "ى": 611,
      "ي": 612,
      "٠": 613,
      "١": 614,
      "٢": 615,
      "٣": 616,
      "٤": 617,
      "٥": 618,
      "٦": 619,
      "٧": 620,
      "٨": 621,
      "٩": 622,
      "٫": 623,
      "ٯ": 624,
      "ٱ": 625,
      "ٳ": 626,
      "ٴ": 627,
      "ٵ": 628,
      "ٷ": 629,
      "ٹ": 630,
      "ٺ": 631,
      "ٻ": 632,
      "ټ": 633,
      "ٽ": 634,
      "پ": 635,
      "ٿ": 636,
      "ڀ": 637,
      "ځ": 638,
      "ڃ": 639,
      "ڄ": 640,
      "چ": 641,
      "ڇ": 642,
      "ڈ": 643,
      "ډ": 644,
      "ڊ": 645,
      "ڌ": 646,
      "ڍ": 647,
      "ڎ": 648,
      "ڑ": 649,
      "ڕ": 650,
      "ڗ": 651,
      "ژ": 652,
      "ښ": 653,
      "ڛ": 654,
      "ڞ": 655,
      "ڡ": 656,
      "ڤ": 657,
      "ڦ": 658,
      "ڧ": 659,
      "ک": 660,
      "ڭ": 661,
      "ڮ": 662,
      "گ": 663,
      "ڰ": 664,
      "ڱ": 665,
      "ڳ": 666,
      "ڵ": 667,
      "ڶ": 668,
      "ڷ": 669,
      "ڸ": 670,
      "ں": 671,
      "ڻ": 672,
      "ڼ": 673,
      "ھ": 674,
      "ڿ": 675,
      "ہ": 676,
      "ۃ": 677,
      "ۄ": 678,
      "ۅ": 679,
      "ۆ": 680,
      "ۇ": 681,
      "ۈ": 682,
      "ۉ": 683,
      "ۊ": 684,
      "ۋ": 685,
      "ی": 686,
      "ێ": 687,
      "ې": 688,
      "ے": 689,
      "ە": 690,
      "۞": 691,
      "ۥ": 692,
      "ۦ": 693,
      "۩": 694,
      "ۮ": 695,
      "۱": 696,
      "۲": 697,
      "۳": 698,
      "۵": 699,
      "۷": 700,
      "۹": 701,
      "ۺ": 702,
      "ۻ": 703,
      "ۼ": 704,
      "۾": 705,
      "ۿ": 706,
      "܄": 707,
      "܅": 708,
      "܇": 709,
      "܉": 710,
      "܊": 711,
      "܎": 712,
      "ܐ": 713,
      "ܓ": 714,
      "ܔ": 715,
      "ܘ": 716,
      "ܙ": 717,
      "ܚ": 718,
      "ܛ": 719,
      "ܜ": 720,
      "ܝ": 721,
      "ܠ": 722,
      "ܡ": 723,
      "ܢ": 724,
      "ܣ": 725,
      "ܤ": 726,
      "ܥ": 727,
      "ܦ": 728,
      "ܧ": 729,
      "ܨ": 730,
      "ܩ": 731,
      "ܪ": 732,
      "ܫ": 733,
      "ܬ": 734,
      "ܯ": 735,
      "ݍ": 736,
      "ݎ": 737,
      "ݏ": 738,
      "ݒ": 739,
      "ݓ": 740,
      "ݕ": 741,
      "ݘ": 742,
      "ݛ": 743,
      "ݟ": 744,
      "ݡ": 745,
      "ݣ": 746,
      "ݤ": 747,
      "ݥ": 748,
      "ݨ": 749,
      "ݫ": 750,
      "ݬ": 751,
      "ݮ": 752,
      "ݰ": 753,
      "ݱ": 754,
      "ݳ": 755,
      "ݴ": 756,
      "ݵ": 757,
      "ݶ": 758,
      "ݷ": 759,
      "ݸ": 760,
      "ݹ": 761,
      "ݺ": 762,
      "ݼ": 763,
      "ݾ": 764,
      "ݿ": 765,
      "ހ": 766,
      "ރ": 767,
      "އ": 768,
      "ފ": 769,
      "ތ": 770,
      "ލ": 771,
      "ގ": 772,
      "ސ": 773,
      "ޑ": 774,
      "ޒ": 775,
      "ޓ": 776,
      "ޕ": 777,
      "ޗ": 778,
      "ޞ": 779,
      "ޟ": 780,
      "ޡ": 781,
      "ޤ": 782,
      "ޥ": 783,
      "ޱ": 784,
      "޲": 785,
      "޳": 786,
      "޵": 787,
      "޶": 788,
      "޻": 789,
      "޽": 790,
      "޾": 791,
      "߃": 792,
      "߄": 793,
      "߇": 794,
      "ߋ": 795,
      "ߍ": 796,
      "ߎ": 797,
      "ߒ": 798,
      "ߘ": 799,
      "ߚ": 800,
      "ߛ": 801,
      "ߜ": 802,
      "ߡ": 803,
      "ߢ": 804,
      "ߣ": 805,
      "ߤ": 806,
      "ߥ": 807,
      "ߧ": 808,
      "ߴ": 809,
      "ߵ": 810,
      "߶": 811,
      "߷": 812,
      "߹": 813,
      "ߺ": 814,
      "߼": 815,
      "߾": 816,
      "߿": 817,
      "ࠅ": 818,
      "ࠆ": 819,
      "ࠇ": 820,
      "ࠈ": 821,
      "ࠋ": 822,
      "ࠍ": 823,
      "ࠎ": 824,
      "ࠏ": 825,
      "ࠐ": 826,
      "ࠔ": 827,
      "ࠤ": 828,
      "ࠨ": 829,
      "࠮": 830,
      "࠰": 831,
      "࠱": 832,
      "࠲": 833,
      "࠴": 834,
      "࠶": 835,
      "࠷": 836,
      "࠸": 837,
      "࠺": 838,
      "࠼": 839,
      "࠽": 840,
      "࠾": 841,
      "࠿": 842,
      "ࡁ": 843,
      "ࡃ": 844,
      "ࡇ": 845,
      "ࡈ": 846,
      "ࡍ": 847,
      "ࡎ": 848,
      "ࡔ": 849,
      "ࡕ": 850,
      "ࡘ": 851,
      "ࡡ": 852,
      "ࡢ": 853,
      "ࡤ": 854,
      "ࡨ": 855,
      "࡬": 856,
      "࡭": 857,
      "࡯": 858,
      "ࡰ": 859,
      "ࡲ": 860,
      "ࡴ": 861,
      "ࡷ": 862,
      "ࡸ": 863,
      "ࡻ": 864,
      "ࡿ": 865,
      "ࢀ": 866,
      "ࢁ": 867,
      "ࢂ": 868,
      "ࢅ": 869,
      "ࢊ": 870,
      "ࢎ": 871,
      "࢏": 872,
      "࢔": 873,
      "࢕": 874,
      "࢙": 875,
      "࢛": 876,
      "࢝": 877,
      "࢟": 878,
      "ࢠ": 879,
      "ࢢ": 880,
      "ࢥ": 881,
      "ࢧ": 882,
      "ࢩ": 883,
      "ࢪ": 884,
      "ࢭ": 885,
      "ࢮ": 886,
      "ࢰ": 887,
      "ࢶ": 888,
      "ࢸ": 889,
      "ࣀ": 890,
      "ࣁ": 891,
      "ࣂ": 892,
      "ࣃ": 893,
      "࣋": 894,
      "࣍": 895,
      "࣏": 896,
      "࣐": 897,
      "࣒": 898,
      "ࣕ": 899,
      "ࣖ": 900,
      "ࣘ": 901,
      "ࣜ": 902,
      "ࣝ": 903,
      "ࣞ": 904,
      "ࣟ": 905,
      "࣠": 906,
      "࣢": 907,
      "ः": 908,
      "ऄ": 909,
      "अ": 910,
      "आ": 911,
      "इ": 912,
      "ई": 913,
      "उ": 914,
      "ऊ": 915,
      "ऎ": 916,
      "ए": 917,
      "ऐ": 918,
      "ऑ": 919,
      "ऒ": 920,
      "ओ": 921,
      "औ": 922,
      "क": 923,
      "ख": 924,
      "ग": 925,
      "घ": 926,
      "ङ": 927,
      "च": 928,
      "छ": 929,
      "ज": 930,
      "झ": 931,
      "ञ": 932,
      "ट": 933,
      "ठ": 934,
      "ड": 935,
      "ढ": 936,
      "ण": 937,
      "त": 938,
      "थ": 939,
      "द": 940,
      "ध": 941,
      "न": 942,
      "प": 943,
      "फ": 944,
      "ब": 945,
      "भ": 946,
      "म": 947,
      "य": 948,
      "र": 949,
      "ल": 950,
      "ळ": 951,
      "व": 952,
      "श": 953,
      "ष": 954,
      "स": 955,
      "ह": 956,
      "ा": 957,
      "ि": 958,
      "ी": 959,
      "ॉ": 960,
      "ो": 961,
      "ौ": 962,
      "ॎ": 963,
      "ॠ": 964,
      "।": 965,
      "॥": 966,
      "१": 967,
      "४": 968,
      "५": 969,
      "६": 970,
      "७": 971,
      "९": 972,
      "॰": 973,
      "ॱ": 974,
      "ॲ": 975,
      "ॳ": 976,
      "ॴ": 977,
      "ॾ": 978,
      "ॿ": 979,
      "ং": 980,
      "অ": 981,
      "আ": 982,
      "ই": 983,
      "ঈ": 984,
      "উ": 985,
      "ঌ": 986,
      "঍": 987,
      "঎": 988,
      "এ": 989,
      "ঐ": 990,
      "঑": 991,
      "঒": 992,
      "ও": 993,
      "ঔ": 994,
      "ক": 995,
      "খ": 996,
      "গ": 997,
      "চ": 998,
      "ছ": 999,
      "জ": 1000,
      "ঝ": 1001,
      "ঞ": 1002,
      "ট": 1003,
      "ঠ": 1004,
      "ড": 1005,
      "ণ": 1006,
      "ত": 1007,
      "থ": 1008,
      "দ": 1009,
      "ধ": 1010,
      "ন": 1011,
      "঩": 1012,
      "প": 1013,
      "ফ": 1014,
      "ব": 1015,
      "ভ": 1016,
      "ম": 1017,
      "য": 1018,
      "র": 1019,
      "ল": 1020,
      "঳": 1021,
      "শ": 1022,
      "ষ": 1023,
      "স": 1024,
      "হ": 1025,
      "ঽ": 1026,
      "া": 1027,
      "ি": 1028,
      "ী": 1029,
      "৅": 1030,
      "৆": 1031,
      "ে": 1032,
      "ৈ": 1033,
      "৊": 1034,
      "ৎ": 1035,
      "৑": 1036,
      "ৗ": 1037,
      "৙": 1038,
      "৛": 1039,
      "৞": 1040,
      "ৠ": 1041,
      "ৡ": 1042,
      "১": 1043,
      "২": 1044,
      "৩": 1045,
      "৪": 1046,
      "৭": 1047,
      "৯": 1048,
      "৳": 1049,
      "৵": 1050,
      "৻": 1051,
      "৽": 1052,
      "৾": 1053,
      "৿": 1054,
      "ਅ": 1055,
      "ਆ": 1056,
      "ਇ": 1057,
      "ਈ": 1058,
      "ਉ": 1059,
      "਋": 1060,
      "਍": 1061,
      "਑": 1062,
      "ਔ": 1063,
      "ਕ": 1064,
      "ਖ": 1065,
      "ਙ": 1066,
      "ਚ": 1067,
      "ਛ": 1068,
      "ਜ": 1069,
      "ਟ": 1070,
      "ਠ": 1071,
      "ਡ": 1072,
      "ਤ": 1073,
      "ਥ": 1074,
      "ਦ": 1075,
      "ਧ": 1076,
      "ਨ": 1077,
      "ਪ": 1078,
      "ਫ": 1079,
      "ਬ": 1080,
      "ਯ": 1081,
      "ਰ": 1082,
      "਱": 1083,
      "ਵ": 1084,
      "਷": 1085,
      "ਸ": 1086,
      "ਹ": 1087,
      "ਾ": 1088,
      "ਿ": 1089,
      "ੀ": 1090,
      "੄": 1091,
      "੆": 1092,
      "੊": 1093,
      "੎": 1094,
      "੒": 1095,
      "੕": 1096,
      "੗": 1097,
      "ੜ": 1098,
      "੤": 1099,
      "੩": 1100,
      "੫": 1101,
      "ੴ": 1102,
      "੷": 1103,
      "઀": 1104,
      "ઇ": 1105,
      "ઈ": 1106,
      "ઌ": 1107,
      "઎": 1108,
      "ઓ": 1109,
      "ખ": 1110,
      "ગ": 1111,
      "છ": 1112,
      "ઝ": 1113,
      "ટ": 1114,
      "ઠ": 1115,
      "ણ": 1116,
      "ધ": 1117,
      "પ": 1118,
      "ફ": 1119,
      "બ": 1120,
      "ભ": 1121,
      "ય": 1122,
      "ર": 1123,
      "ળ": 1124,
      "વ": 1125,
      "ષ": 1126,
      "હ": 1127,
      "઺": 1128,
      "઻": 1129,
      "ા": 1130,
      "િ": 1131,
      "ી": 1132,
      "૊": 1133,
      "ૌ": 1134,
      "ૐ": 1135,
      "૒": 1136,
      "૔": 1137,
      "૕": 1138,
      "૗": 1139,
      "૘": 1140,
      "૙": 1141,
      "૚": 1142,
      "૜": 1143,
      "૟": 1144,
      "ૠ": 1145,
      "ૡ": 1146,
      "૤": 1147,
      "૥": 1148,
      "૨": 1149,
      "૪": 1150,
      "૬": 1151,
      "૱": 1152,
      "૴": 1153,
      "૵": 1154,
      "ૼ": 1155,
      "૽": 1156,
      "଀": 1157,
      "ଂ": 1158,
      "ଅ": 1159,
      "ଊ": 1160,
      "ଋ": 1161,
      "ଌ": 1162,
      "଍": 1163,
      "଎": 1164,
      "ଘ": 1165,
      "ଙ": 1166,
      "ଚ": 1167,
      "ଜ": 1168,
      "ଟ": 1169,
      "ଡ": 1170,
      "ଢ": 1171,
      "ଧ": 1172,
      "ଫ": 1173,
      "ମ": 1174,
      "ର": 1175,
      "ଳ": 1176,
      "ଷ": 1177,
      "ସ": 1178,
      "଻": 1179,
      "ା": 1180,
      "୆": 1181,
      "େ": 1182,
      "୊": 1183,
      "୏": 1184,
      "୐": 1185,
      "୒": 1186,
      "ୗ": 1187,
      "ୟ": 1188,
      "ୠ": 1189,
      "୧": 1190,
      "୮": 1191,
      "୯": 1192,
      "୴": 1193,
      "୶": 1194,
      "୺": 1195,
      "୻": 1196,
      "୽": 1197,
      "୾": 1198,
      "୿": 1199,
      "஁": 1200,
      "ஃ": 1201,
      "ஊ": 1202,
      "஋": 1203,
      "஌": 1204,
      "எ": 1205,
      "ஐ": 1206,
      "஑": 1207,
      "ஒ": 1208,
      "க": 1209,
      "஘": 1210,
      "ங": 1211,
      "ச": 1212,
      "ஜ": 1213,
      "ட": 1214,
      "த": 1215,
      "ன": 1216,
      "ப": 1217,
      "஫": 1218,
      "஬": 1219,
      "ம": 1220,
      "ய": 1221,
      "ர": 1222,
      "ற": 1223,
      "ல": 1224,
      "ள": 1225,
      "ழ": 1226,
      "வ": 1227,
      "ஹ": 1228,
      "ா": 1229,
      "ி": 1230,
      "ு": 1231,
      "ூ": 1232,
      "ெ": 1233,
      "ே": 1234,
      "ை": 1235,
      "௏": 1236,
      "ௐ": 1237,
      "௑": 1238,
      "௕": 1239,
      "ௗ": 1240,
      "௚": 1241,
      "௜": 1242,
      "௝": 1243,
      "௞": 1244,
      "௠": 1245,
      "௢": 1246,
      "௤": 1247,
      "௭": 1248,
      "௰": 1249,
      "௱": 1250,
      "௵": 1251,
      "௷": 1252,
      "௻": 1253,
      "௼": 1254,
      "௽": 1255,
      "௾": 1256,
      "ః": 1257,
      "ఆ": 1258,
      "ఇ": 1259,
      "ఉ": 1260,
      "఍": 1261,
      "ఐ": 1262,
      "఑": 1263,
      "ఓ": 1264,
      "ఔ": 1265,
      "క": 1266,
      "ఖ": 1267,
      "గ": 1268,
      "జ": 1269,
      "ట": 1270,
      "ణ": 1271,
      "త": 1272,
      "ద": 1273,
      "ధ": 1274,
      "న": 1275,
      "య": 1276,
      "ల": 1277,
      "ళ": 1278,
      "శ": 1279,
      "స": 1280,
      "఻": 1281,
      "ు": 1282,
      "౉": 1283,
      "౎": 1284,
      "౑": 1285,
      "ౙ": 1286,
      "ౚ": 1287,
      "౜": 1288,
      "ౝ": 1289,
      "౞": 1290,
      "ౡ": 1291,
      "౤": 1292,
      "౥": 1293,
      "౦": 1294,
      "౩": 1295,
      "౫": 1296,
      "౬": 1297,
      "౮": 1298,
      "౲": 1299,
      "౵": 1300,
      "౷": 1301,
      "౹": 1302,
      "౺": 1303,
      "౻": 1304,
      "౼": 1305,
      "౿": 1306,
      "ಀ": 1307,
      "ಂ": 1308,
      "ಃ": 1309,
      "ಅ": 1310,
      "ಆ": 1311,
      "ಎ": 1312,
      "ಐ": 1313,
      "಑": 1314,
      "ಒ": 1315,
      "ಓ": 1316,
      "ಔ": 1317,
      "ಕ": 1318,
      "ಡ": 1319,
      "ತ": 1320,
      "ಧ": 1321,
      "಩": 1322,
      "ಪ": 1323,
      "ಫ": 1324,
      "ರ": 1325,
      "ಲ": 1326,
      "ವ": 1327,
      "ಸ": 1328,
      "ಹ": 1329,
      "ಽ": 1330,
      "ಾ": 1331,
      "ು": 1332,
      "ೂ": 1333,
      "೎": 1334,
      "೏": 1335,
      "೒": 1336,
      "೓": 1337,
      "೔": 1338,
      "ೕ": 1339,
      "೛": 1340,
      "೜": 1341,
      "ೡ": 1342,
      "೥": 1343,
      "೪": 1344,
      "೫": 1345,
      "೬": 1346,
      "೮": 1347,
      "ೱ": 1348,
      "ೲ": 1349,
      "೵": 1350,
      "೻": 1351,
      "೽": 1352,
      "ം": 1353,
      "ആ": 1354,
      "ഇ": 1355,
      "ഈ": 1356,
      "ഊ": 1357,
      "ഌ": 1358,
      "എ": 1359,
      "ഐ": 1360,
      "഑": 1361,
      "ഒ": 1362,
      "ഓ": 1363,
      "ഔ": 1364,
      "ച": 1365,
      "ജ": 1366,
      "ഝ": 1367,
      "ഞ": 1368,
      "ഡ": 1369,
      "ഢ": 1370,
      "ഥ": 1371,
      "ധ": 1372,
      "ന": 1373,
      "പ": 1374,
      "ബ": 1375,
      "മ": 1376,
      "യ": 1377,
      "ര": 1378,
      "ല": 1379,
      "ള": 1380,
      "സ": 1381,
      "ഺ": 1382,
      "഼": 1383,
      "ാ": 1384,
      "ി": 1385,
      "െ": 1386,
      "േ": 1387,
      "൉": 1388,
      "൓": 1389,
      "ൔ": 1390,
      "൚": 1391,
      "ൟ": 1392,
      "ൡ": 1393,
      "൦": 1394,
      "൨": 1395,
      "൪": 1396,
      "൰": 1397,
      "൱": 1398,
      "൵": 1399,
      "൷": 1400,
      "ൽ": 1401,
      "඀": 1402,
      "ඁ": 1403,
      "ං": 1404,
      "඄": 1405,
      "අ": 1406,
      "ආ": 1407,
      "ඇ": 1408,
      "ඉ": 1409,
      "උ": 1410,
      "ඌ": 1411,
      "එ": 1412,
      "ඒ": 1413,
      "ඔ": 1414,
      "ඕ": 1415,
      "඗": 1416,
      "඘": 1417,
      "ක": 1418,
      "ඛ": 1419,
      "ග": 1420,
      "ඝ": 1421,
      "ඞ": 1422,
      "ච": 1423,
      "ඡ": 1424,
      "ජ": 1425,
      "ඤ": 1426,
      "ඥ": 1427,
      "ට": 1428,
      "ඩ": 1429,
      "ණ": 1430,
      "ත": 1431,
      "ථ": 1432,
      "ද": 1433,
      "ධ": 1434,
      "න": 1435,
      "ඳ": 1436,
      "ප": 1437,
      "ඵ": 1438,
      "බ": 1439,
      "ම": 1440,
      "ය": 1441,
      "ර": 1442,
      "ල": 1443,
      "඾": 1444,
      "ව": 1445,
      "ශ": 1446,
      "ෂ": 1447,
      "ස": 1448,
      "හ": 1449,
      "ළ": 1450,
      "ෆ": 1451,
      "෈": 1452,
      "෋": 1453,
      "෍": 1454,
      "෎": 1455,
      "ා": 1456,
      "ැ": 1457,
      "ෑ": 1458,
      "෕": 1459,
      "෗": 1460,
      "ෘ": 1461,
      "ෙ": 1462,
      "ෟ": 1463,
      "෣": 1464,
      "෤": 1465,
      "෨": 1466,
      "෪": 1467,
      "෰": 1468,
      "ෳ": 1469,
      "෵": 1470,
      "෷": 1471,
      "෻": 1472,
      "෾": 1473,
      "ก": 1474,
      "ข": 1475,
      "ฃ": 1476,
      "ค": 1477,
      "ง": 1478,
      "จ": 1479,
      "ฉ": 1480,
      "ช": 1481,
      "ซ": 1482,
      "ฌ": 1483,
      "ญ": 1484,
      "ฎ": 1485,
      "ฐ": 1486,
      "ฑ": 1487,
      "ฒ": 1488,
      "ณ": 1489,
      "ด": 1490,
      "ต": 1491,
      "ถ": 1492,
      "ท": 1493,
      "ธ": 1494,
      "น": 1495,
      "บ": 1496,
      "ป": 1497,
      "ผ": 1498,
      "ฝ": 1499,
      "พ": 1500,
      "ฟ": 1501,
      "ภ": 1502,
      "ม": 1503,
      "ย": 1504,
      "ร": 1505,
      "ล": 1506,
      "ฦ": 1507,
      "ว": 1508,
      "ศ": 1509,
      "ษ": 1510,
      "ส": 1511,
      "ห": 1512,
      "อ": 1513,
      "ฮ": 1514,
      "ฯ": 1515,
      "ะ": 1516,
      "า": 1517,
      "ำ": 1518,
      "฼": 1519,
      "฿": 1520,
      "เ": 1521,
      "แ": 1522,
      "โ": 1523,
      "ใ": 1524,
      "ไ": 1525,
      "ๆ": 1526,
      "๒": 1527,
      "๗": 1528,
      "๙": 1529,
      "๚": 1530,
      "๜": 1531,
      "๝": 1532,
      "๠": 1533,
      "๡": 1534,
      "๤": 1535,
      "๦": 1536,
      "๧": 1537,
      "๩": 1538,
      "๪": 1539,
      "๯": 1540,
      "๰": 1541,
      "๳": 1542,
      "๵": 1543,
      "๺": 1544,
      "๻": 1545,
      "๼": 1546,
      "๿": 1547,
      "຀": 1548,
      "ກ": 1549,
      "ຄ": 1550,
      "຋": 1551,
      "ຎ": 1552,
      "ຐ": 1553,
      "ຓ": 1554,
      "ຕ": 1555,
      "ຖ": 1556,
      "ບ": 1557,
      "ປ": 1558,
      "ຝ": 1559,
      "ພ": 1560,
      "຤": 1561,
      "ລ": 1562,
      "ວ": 1563,
      "ຩ": 1564,
      "ສ": 1565,
      "ອ": 1566,
      "ຯ": 1567,
      "າ": 1568,
      "຺": 1569,
      "຿": 1570,
      "ໂ": 1571,
      "ໃ": 1572,
      "ໄ": 1573,
      "໐": 1574,
      "໒": 1575,
      "໗": 1576,
      "໘": 1577,
      "໙": 1578,
      "໠": 1579,
      "໧": 1580,
      "໩": 1581,
      "໭": 1582,
      "໰": 1583,
      "໶": 1584,
      "໼": 1585,
      "໽": 1586,
      "༄": 1587,
      "༆": 1588,
      "༇": 1589,
      "།": 1590,
      "༎": 1591,
      "༏": 1592,
      "༐": 1593,
      "༒": 1594,
      "༔": 1595,
      "༚": 1596,
      "༞": 1597,
      "༟": 1598,
      "༠": 1599,
      "༢": 1600,
      "༧": 1601,
      "༪": 1602,
      "༳": 1603,
      "༶": 1604,
      "༺": 1605,
      "༻": 1606,
      "༼": 1607,
      "ཁ": 1608,
      "ང": 1609,
      "ཅ": 1610,
      "ཌ": 1611,
      "ཎ": 1612,
      "ཐ": 1613,
      "ད": 1614,
      "ཙ": 1615,
      "ཚ": 1616,
      "ཟ": 1617,
      "ར": 1618,
      "ཤ": 1619,
      "ཧ": 1620,
      "཭": 1621,
      "཯": 1622,
      "ྈ": 1623,
      "ྉ": 1624,
      "ྊ": 1625,
      "ྌ": 1626,
      "྿": 1627,
      "࿀": 1628,
      "࿄": 1629,
      "࿇": 1630,
      "࿈": 1631,
      "࿌": 1632,
      "࿍": 1633,
      "࿐": 1634,
      "࿑": 1635,
      "࿒": 1636,
      "࿓": 1637,
      "࿔": 1638,
      "࿕": 1639,
      "࿙": 1640,
      "࿞": 1641,
      "࿡": 1642,
      "࿢": 1643,
      "࿣": 1644,
      "࿤": 1645,
      "࿥": 1646,
      "࿧": 1647,
      "࿨": 1648,
      "࿲": 1649,
      "࿳": 1650,
      "࿵": 1651,
      "࿽": 1652,
      "࿾": 1653,
      "က": 1654,
      "ခ": 1655,
      "ဃ": 1656,
      "င": 1657,
      "စ": 1658,
      "ည": 1659,
      "ဍ": 1660,
      "ဒ": 1661,
      "န": 1662,
      "ပ": 1663,
      "ဖ": 1664,
      "မ": 1665,
      "ရ": 1666,
      "လ": 1667,
      "အ": 1668,
      "ဣ": 1669,
      "ဥ": 1670,
      "ဩ": 1671,
      "ါ": 1672,
      "ာ": 1673,
      "ေ": 1674,
      "း": 1675,
      "ြ": 1676,
      "ဿ": 1677,
      "၃": 1678,
      "၅": 1679,
      "၉": 1680,
      "၊": 1681,
      "။": 1682,
      "၏": 1683,
      "ၐ": 1684,
      "ၓ": 1685,
      "ၖ": 1686,
      "ၗ": 1687,
      "ၝ": 1688,
      "ၣ": 1689,
      "ၮ": 1690,
      "ၯ": 1691,
      "ၶ": 1692,
      "ၸ": 1693,
      "ၺ": 1694,
      "ၻ": 1695,
      "ၽ": 1696,
      "ၾ": 1697,
      "ၿ": 1698,
      "ႀ": 1699,
      "ႈ": 1700,
      "ႊ": 1701,
      "ႋ": 1702,
      "႑": 1703,
      "႒": 1704,
      "႕": 1705,
      "႖": 1706,
      "႘": 1707,
      "ႚ": 1708,
      "႞": 1709,
      "჈": 1710,
      "჉": 1711,
      "჋": 1712,
      "ა": 1713,
      "ბ": 1714,
      "გ": 1715,
      "დ": 1716,
      "ე": 1717,
      "ვ": 1718,
      "ზ": 1719,
      "თ": 1720,
      "ი": 1721,
      "კ": 1722,
      "ლ": 1723,
      "მ": 1724,
      "ნ": 1725,
      "ო": 1726,
      "პ": 1727,
      "ჟ": 1728,
      "რ": 1729,
      "ს": 1730,
      "ტ": 1731,
      "უ": 1732,
      "ქ": 1733,
      "ღ": 1734,
      "ყ": 1735,
      "ჩ": 1736,
      "ც": 1737,
      "წ": 1738,
      "ხ": 1739,
      "ჯ": 1740,
      "ჱ": 1741,
      "ჲ": 1742,
      "ჵ": 1743,
      "ჷ": 1744,
      "ჸ": 1745,
      "ჹ": 1746,
      "ჽ": 1747,
      "ჾ": 1748,
      "ჿ": 1749,
      "ᄀ": 1750,
      "ᄁ": 1751,
      "ᄂ": 1752,
      "ᄃ": 1753,
      "ᄅ": 1754,
      "ᄆ": 1755,
      "ᄇ": 1756,
      "ᄈ": 1757,
      "ᄉ": 1758,
      "ᄋ": 1759,
      "ᄌ": 1760,
      "ᄍ": 1761,
      "ᄎ": 1762,
      "ᄏ": 1763,
      "ᄐ": 1764,
      "ᄑ": 1765,
      "ᄒ": 1766,
      "ᄗ": 1767,
      "ᄙ": 1768,
      "ᄠ": 1769,
      "ᄢ": 1770,
      "ᄤ": 1771,
      "ᄥ": 1772,
      "ᄦ": 1773,
      "ᄩ": 1774,
      "ᄭ": 1775,
      "ᄵ": 1776,
      "ᄸ": 1777,
      "ᄹ": 1778,
      "ᄺ": 1779,
      "ᄼ": 1780,
      "ᅀ": 1781,
      "ᅄ": 1782,
      "ᅆ": 1783,
      "ᅈ": 1784,
      "ᅉ": 1785,
      "ᅊ": 1786,
      "ᅋ": 1787,
      "ᅎ": 1788,
      "ᅒ": 1789,
      "ᅔ": 1790,
      "ᅖ": 1791,
      "ᅛ": 1792,
      "ᅝ": 1793,
      "ᅡ": 1794,
      "ᅢ": 1795,
      "ᅣ": 1796,
      "ᅤ": 1797,
      "ᅥ": 1798,
      "ᅦ": 1799,
      "ᅧ": 1800,
      "ᅨ": 1801,
      "ᅩ": 1802,
      "ᅪ": 1803,
      "ᅫ": 1804,
      "ᅬ": 1805,
      "ᅭ": 1806,
      "ᅮ": 1807,
      "ᅯ": 1808,
      "ᅰ": 1809,
      "ᅱ": 1810,
      "ᅲ": 1811,
      "ᅳ": 1812,
      "ᅴ": 1813,
      "ᅵ": 1814,
      "ᅶ": 1815,
      "ᅹ": 1816,
      "ᅺ": 1817,
      "ᅻ": 1818,
      "ᅼ": 1819,
      "ᅽ": 1820,
      "ᅾ": 1821,
      "ᆀ": 1822,
      "ᆅ": 1823,
      "ᆇ": 1824,
      "ᆊ": 1825,
      "ᆌ": 1826,
      "ᆎ": 1827,
      "ᆓ": 1828,
      "ᆕ": 1829,
      "ᆖ": 1830,
      "ᆟ": 1831,
      "ᆥ": 1832,
      "ᆦ": 1833,
      "ᆨ": 1834,
      "ᆪ": 1835,
      "ᆫ": 1836,
      "ᆬ": 1837,
      "ᆭ": 1838,
      "ᆮ": 1839,
      "ᆯ": 1840,
      "ᆰ": 1841,
      "ᆱ": 1842,
      "ᆲ": 1843,
      "ᆳ": 1844,
      "ᆴ": 1845,
      "ᆵ": 1846,
      "ᆷ": 1847,
      "ᆸ": 1848,
      "ᆹ": 1849,
      "ᆺ": 1850,
      "ᆻ": 1851,
      "ᆼ": 1852,
      "ᆽ": 1853,
      "ᆾ": 1854,
      "ᇀ": 1855,
      "ᇂ": 1856,
      "ᇃ": 1857,
      "ᇅ": 1858,
      "ᇆ": 1859,
      "ᇎ": 1860,
      "ᇒ": 1861,
      "ᇔ": 1862,
      "ᇖ": 1863,
      "ᇚ": 1864,
      "ᇜ": 1865,
      "ᇞ": 1866,
      "ᇡ": 1867,
      "ᇢ": 1868,
      "ᇣ": 1869,
      "ᇥ": 1870,
      "ᇩ": 1871,
      "ᇫ": 1872,
      "ᇬ": 1873,
      "ᇭ": 1874,
      "ᇰ": 1875,
      "ᇱ": 1876,
      "ᇳ": 1877,
      "ᇸ": 1878,
      "ᇻ": 1879,
      "ᇾ": 1880,
      "ᇿ": 1881,
      "ሀ": 1882,
      "ሁ": 1883,
      "ሂ": 1884,
      "ሃ": 1885,
      "ሄ": 1886,
      "ህ": 1887,
      "ሆ": 1888,
      "ሇ": 1889,
      "ለ": 1890,
      "ሉ": 1891,
      "ሊ": 1892,
      "ላ": 1893,
      "ሌ": 1894,
      "ል": 1895,
      "ሎ": 1896,
      "ሏ": 1897,
      "ሐ": 1898,
      "ሑ": 1899,
      "ሒ": 1900,
      "ሓ": 1901,
      "ሔ": 1902,
      "ሕ": 1903,
      "ሖ": 1904,
      "ሗ": 1905,
      "መ": 1906,
      "ሙ": 1907,
      "ሚ": 1908,
      "ማ": 1909,
      "ሜ": 1910,
      "ም": 1911,
      "ሞ": 1912,
      "ሟ": 1913,
      "ሠ": 1914,
      "ሡ": 1915,
      "ሢ": 1916,
      "ሣ": 1917,
      "ሤ": 1918,
      "ሥ": 1919,
      "ሦ": 1920,
      "ሧ": 1921,
      "ረ": 1922,
      "ሩ": 1923,
      "ሪ": 1924,
      "ራ": 1925,
      "ሬ": 1926,
      "ር": 1927,
      "ሮ": 1928,
      "ሯ": 1929,
      "ሰ": 1930,
      "ሱ": 1931,
      "ሲ": 1932,
      "ሳ": 1933,
      "ሴ": 1934,
      "ስ": 1935,
      "ሶ": 1936,
      "ሷ": 1937,
      "ሸ": 1938,
      "ሹ": 1939,
      "ሺ": 1940,
      "ሻ": 1941,
      "ሼ": 1942,
      "ሽ": 1943,
      "ሾ": 1944,
      "ሿ": 1945,
      "ቀ": 1946,
      "ቁ": 1947,
      "ቂ": 1948,
      "ቃ": 1949,
      "ቄ": 1950,
      "ቅ": 1951,
      "ቆ": 1952,
      "ቇ": 1953,
      "ቈ": 1954,
      "቉": 1955,
      "ቊ": 1956,
      "ቋ": 1957,
      "ቌ": 1958,
      "ቍ": 1959,
      "቎": 1960,
      "ቐ": 1961,
      "ቑ": 1962,
      "ቒ": 1963,
      "ቓ": 1964,
      "ቔ": 1965,
      "ቕ": 1966,
      "ቖ": 1967,
      "቗": 1968,
      "ቘ": 1969,
      "቙": 1970,
      "ቚ": 1971,
      "ቛ": 1972,
      "ቜ": 1973,
      "ቝ": 1974,
      "቞": 1975,
      "በ": 1976,
      "ቡ": 1977,
      "ቢ": 1978,
      "ባ": 1979,
      "ቤ": 1980,
      "ብ": 1981,
      "ቦ": 1982,
      "ቧ": 1983,
      "ቨ": 1984,
      "ቩ": 1985,
      "ቪ": 1986,
      "ቫ": 1987,
      "ቬ": 1988,
      "ቭ": 1989,
      "ቮ": 1990,
      "ቯ": 1991,
      "ተ": 1992,
      "ቱ": 1993,
      "ቲ": 1994,
      "ታ": 1995,
      "ቴ": 1996,
      "ት": 1997,
      "ቶ": 1998,
      "ቷ": 1999,
      "ቸ": 2000,
      "ቹ": 2001,
      "ቺ": 2002,
      "ቻ": 2003,
      "ቼ": 2004,
      "ች": 2005,
      "ቾ": 2006,
      "ቿ": 2007,
      "ኀ": 2008,
      "ኁ": 2009,
      "ኂ": 2010,
      "ኃ": 2011,
      "ኄ": 2012,
      "ኅ": 2013,
      "ኆ": 2014,
      "ኇ": 2015,
      "ኈ": 2016,
      "኉": 2017,
      "ኊ": 2018,
      "ኋ": 2019,
      "ኌ": 2020,
      "ኍ": 2021,
      "኏": 2022,
      "ነ": 2023,
      "ኑ": 2024,
      "ኒ": 2025,
      "ና": 2026,
      "ኔ": 2027,
      "ን": 2028,
      "ኖ": 2029,
      "ኗ": 2030,
      "ኘ": 2031,
      "ኙ": 2032,
      "ኚ": 2033,
      "ኛ": 2034,
      "ኜ": 2035,
      "ኝ": 2036,
      "ኞ": 2037,
      "ኟ": 2038,
      "አ": 2039,
      "ኡ": 2040,
      "ኢ": 2041,
      "ኣ": 2042,
      "ኤ": 2043,
      "እ": 2044,
      "ኦ": 2045,
      "ኧ": 2046,
      "ከ": 2047,
      "ኩ": 2048,
      "ኪ": 2049,
      "ካ": 2050,
      "ኬ": 2051,
      "ክ": 2052,
      "ኮ": 2053,
      "ኯ": 2054,
      "ኰ": 2055,
      "኱": 2056,
      "ኲ": 2057,
      "ኳ": 2058,
      "ኴ": 2059,
      "ኵ": 2060,
      "ኸ": 2061,
      "ኹ": 2062,
      "ኺ": 2063,
      "ኻ": 2064,
      "ኼ": 2065,
      "ኽ": 2066,
      "ኾ": 2067,
      "኿": 2068,
      "ዀ": 2069,
      "ዂ": 2070,
      "ዃ": 2071,
      "ዄ": 2072,
      "ዅ": 2073,
      "዇": 2074,
      "ወ": 2075,
      "ዉ": 2076,
      "ዊ": 2077,
      "ዋ": 2078,
      "ዌ": 2079,
      "ው": 2080,
      "ዎ": 2081,
      "ዏ": 2082,
      "ዐ": 2083,
      "ዑ": 2084,
      "ዒ": 2085,
      "ዓ": 2086,
      "ዔ": 2087,
      "ዕ": 2088,
      "ዖ": 2089,
      "዗": 2090,
      "ዘ": 2091,
      "ዙ": 2092,
      "ዚ": 2093,
      "ዛ": 2094,
      "ዜ": 2095,
      "ዝ": 2096,
      "ዞ": 2097,
      "ዟ": 2098,
      "ዠ": 2099,
      "ዡ": 2100,
      "ዢ": 2101,
      "ዣ": 2102,
      "ዤ": 2103,
      "ዥ": 2104,
      "ዦ": 2105,
      "ዧ": 2106,
      "የ": 2107,
      "ዩ": 2108,
      "ዪ": 2109,
      "ያ": 2110,
      "ዬ": 2111,
      "ይ": 2112,
      "ዮ": 2113,
      "ዯ": 2114,
      "ደ": 2115,
      "ዱ": 2116,
      "ዲ": 2117,
      "ዳ": 2118,
      "ዴ": 2119,
      "ድ": 2120,
      "ዶ": 2121,
      "ዷ": 2122,
      "ዸ": 2123,
      "ዹ": 2124,
      "ዺ": 2125,
      "ዻ": 2126,
      "ዼ": 2127,
      "ዽ": 2128,
      "ዾ": 2129,
      "ዿ": 2130,
      "ጀ": 2131,
      "ጁ": 2132,
      "ጂ": 2133,
      "ጃ": 2134,
      "ጄ": 2135,
      "ጅ": 2136,
      "ጆ": 2137,
      "ጇ": 2138,
      "ገ": 2139,
      "ጉ": 2140,
      "ጊ": 2141,
      "ጋ": 2142,
      "ጌ": 2143,
      "ግ": 2144,
      "ጎ": 2145,
      "ጏ": 2146,
      "ጐ": 2147,
      "጑": 2148,
      "ጒ": 2149,
      "ጓ": 2150,
      "ጔ": 2151,
      "ጕ": 2152,
      "ጘ": 2153,
      "ጙ": 2154,
      "ጚ": 2155,
      "ጛ": 2156,
      "ጜ": 2157,
      "ጝ": 2158,
      "ጞ": 2159,
      "ጟ": 2160,
      "ጠ": 2161,
      "ጡ": 2162,
      "ጢ": 2163,
      "ጣ": 2164,
      "ጤ": 2165,
      "ጥ": 2166,
      "ጦ": 2167,
      "ጧ": 2168,
      "ጨ": 2169,
      "ጩ": 2170,
      "ጪ": 2171,
      "ጫ": 2172,
      "ጬ": 2173,
      "ጭ": 2174,
      "ጮ": 2175,
      "ጯ": 2176,
      "ጰ": 2177,
      "ጱ": 2178,
      "ጲ": 2179,
      "ጳ": 2180,
      "ጴ": 2181,
      "ጵ": 2182,
      "ጶ": 2183,
      "ጷ": 2184,
      "ጸ": 2185,
      "ጹ": 2186,
      "ጺ": 2187,
      "ጻ": 2188,
      "ጼ": 2189,
      "ጽ": 2190,
      "ጾ": 2191,
      "ጿ": 2192,
      "ፀ": 2193,
      "ፁ": 2194,
      "ፂ": 2195,
      "ፃ": 2196,
      "ፄ": 2197,
      "ፅ": 2198,
      "ፆ": 2199,
      "ፇ": 2200,
      "ፈ": 2201,
      "ፉ": 2202,
      "ፊ": 2203,
      "ፋ": 2204,
      "ፌ": 2205,
      "ፍ": 2206,
      "ፎ": 2207,
      "ፏ": 2208,
      "ፐ": 2209,
      "ፑ": 2210,
      "ፒ": 2211,
      "ፓ": 2212,
      "ፔ": 2213,
      "ፕ": 2214,
      "ፖ": 2215,
      "ፗ": 2216,
      "ፘ": 2217,
      "ፙ": 2218,
      "ፚ": 2219,
      "፛": 2220,
      "፠": 2221,
      "፡": 2222,
      "።": 2223,
      "፣": 2224,
      "፤": 2225,
      "፥": 2226,
      "፦": 2227,
      "፧": 2228,
      "፨": 2229,
      "፩": 2230,
      "፪": 2231,
      "፫": 2232,
      "፬": 2233,
      "፭": 2234,
      "፮": 2235,
      "፯": 2236,
      "፰": 2237,
      "፱": 2238,
      "፲": 2239,
      "፳": 2240,
      "፴": 2241,
      "፵": 2242,
      "፶": 2243,
      "፷": 2244,
      "፸": 2245,
      "፹": 2246,
      "፺": 2247,
      "፻": 2248,
      "፼": 2249,
      "፿": 2250,
      "ᎀ": 2251,
      "ᎁ": 2252,
      "ᎂ": 2253,
      "ᎃ": 2254,
      "ᎄ": 2255,
      "ᎅ": 2256,
      "ᎆ": 2257,
      "ᎇ": 2258,
      "ᎈ": 2259,
      "ᎉ": 2260,
      "ᎊ": 2261,
      "ᎋ": 2262,
      "ᎌ": 2263,
      "ᎍ": 2264,
      "ᎎ": 2265,
      "ᎏ": 2266,
      "᎐": 2267,
      "᎑": 2268,
      "᎒": 2269,
      "᎓": 2270,
      "᎔": 2271,
      "᎕": 2272,
      "᎖": 2273,
      "᎗": 2274,
      "᎘": 2275,
      "᎙": 2276,
      "᎚": 2277,
      "᎛": 2278,
      "᎜": 2279,
      "᎝": 2280,
      "᎞": 2281,
      "᎟": 2282,
      "᏶": 2283,
      "᏷": 2284,
      "ᏸ": 2285,
      "ᏹ": 2286,
      "ᏺ": 2287,
      "ᏼ": 2288,
      "᏿": 2289,
      "᐀": 2290,
      "ᐁ": 2291,
      "ᐂ": 2292,
      "ᐃ": 2293,
      "ᐄ": 2294,
      "ᐍ": 2295,
      "ᐓ": 2296,
      "ᐗ": 2297,
      "ᐙ": 2298,
      "ᐚ": 2299,
      "ᐛ": 2300,
      "ᐜ": 2301,
      "ᐝ": 2302,
      "ᐞ": 2303,
      "ᐠ": 2304,
      "ᐣ": 2305,
      "ᐥ": 2306,
      "ᐩ": 2307,
      "ᐪ": 2308,
      "ᐰ": 2309,
      "ᐳ": 2310,
      "ᐵ": 2311,
      "ᐸ": 2312,
      "ᐹ": 2313,
      "ᐺ": 2314,
      "ᐼ": 2315,
      "ᐽ": 2316,
      "ᑂ": 2317,
      "ᑃ": 2318,
      "ᑅ": 2319,
      "ᑋ": 2320,
      "ᑌ": 2321,
      "ᑍ": 2322,
      "ᑏ": 2323,
      "ᑐ": 2324,
      "ᑑ": 2325,
      "ᑕ": 2326,
      "ᑖ": 2327,
      "ᑙ": 2328,
      "ᑟ": 2329,
      "ᑠ": 2330,
      "ᑡ": 2331,
      "ᑣ": 2332,
      "ᑨ": 2333,
      "ᑩ": 2334,
      "ᑪ": 2335,
      "ᑬ": 2336,
      "ᑭ": 2337,
      "ᑱ": 2338,
      "ᑲ": 2339,
      "ᑵ": 2340,
      "ᑶ": 2341,
      "ᑻ": 2342,
      "ᑼ": 2343,
      "ᑽ": 2344,
      "ᒂ": 2345,
      "ᒇ": 2346,
      "ᒊ": 2347,
      "ᒍ": 2348,
      "ᒎ": 2349,
      "ᒏ": 2350,
      "ᒐ": 2351,
      "ᒑ": 2352,
      "ᒒ": 2353,
      "ᒓ": 2354,
      "ᒖ": 2355,
      "ᒙ": 2356,
      "ᒝ": 2357,
      "ᒠ": 2358,
      "ᒡ": 2359,
      "ᒢ": 2360,
      "ᒥ": 2361,
      "ᒦ": 2362,
      "ᒪ": 2363,
      "ᒬ": 2364,
      "ᒯ": 2365,
      "ᒰ": 2366,
      "ᒱ": 2367,
      "ᒴ": 2368,
      "ᒵ": 2369,
      "ᒶ": 2370,
      "ᓄ": 2371,
      "ᓅ": 2372,
      "ᓈ": 2373,
      "ᓌ": 2374,
      "ᓎ": 2375,
      "ᓏ": 2376,
      "ᓒ": 2377,
      "ᓖ": 2378,
      "ᓘ": 2379,
      "ᓝ": 2380,
      "ᓦ": 2381,
      "ᓧ": 2382,
      "ᓨ": 2383,
      "ᓩ": 2384,
      "ᓬ": 2385,
      "ᓲ": 2386,
      "ᓴ": 2387,
      "ᓷ": 2388,
      "ᓸ": 2389,
      "ᓺ": 2390,
      "ᓻ": 2391,
      "ᓼ": 2392,
      "ᓽ": 2393,
      "ᓾ": 2394,
      "ᔁ": 2395,
      "ᔃ": 2396,
      "ᔄ": 2397,
      "ᔇ": 2398,
      "ᔈ": 2399,
      "ᔊ": 2400,
      "ᔋ": 2401,
      "ᔏ": 2402,
      "ᔐ": 2403,
      "ᔑ": 2404,
      "ᔔ": 2405,
      "ᔕ": 2406,
      "ᔘ": 2407,
      "ᔛ": 2408,
      "ᔝ": 2409,
      "ᔞ": 2410,
      "ᔢ": 2411,
      "ᔤ": 2412,
      "ᔥ": 2413,
      "ᔪ": 2414,
      "ᔭ": 2415,
      "ᔰ": 2416,
      "ᔱ": 2417,
      "ᔵ": 2418,
      "ᔻ": 2419,
      "ᔼ": 2420,
      "ᕂ": 2421,
      "ᕃ": 2422,
      "ᕆ": 2423,
      "ᕊ": 2424,
      "ᕌ": 2425,
      "ᕍ": 2426,
      "ᕎ": 2427,
      "ᕔ": 2428,
      "ᕕ": 2429,
      "ᕚ": 2430,
      "ᕣ": 2431,
      "ᕤ": 2432,
      "ᕩ": 2433,
      "ᕪ": 2434,
      "ᕯ": 2435,
      "ᕰ": 2436,
      "ᕱ": 2437,
      "ᕳ": 2438,
      "ᕵ": 2439,
      "ᕸ": 2440,
      "ᕼ": 2441,
      "ᕽ": 2442,
      "ᕾ": 2443,
      "ᖀ": 2444,
      "ᖁ": 2445,
      "ᖂ": 2446,
      "ᖄ": 2447,
      "ᖆ": 2448,
      "ᖈ": 2449,
      "ᖉ": 2450,
      "ᖋ": 2451,
      "ᖍ": 2452,
      "ᖎ": 2453,
      "ᖒ": 2454,
      "ᖔ": 2455,
      "ᖖ": 2456,
      "ᖗ": 2457,
      "ᖘ": 2458,
      "ᖚ": 2459,
      "ᖠ": 2460,
      "ᖣ": 2461,
      "ᖦ": 2462,
      "ᖧ": 2463,
      "ᖨ": 2464,
      "ᖬ": 2465,
      "ᖯ": 2466,
      "ᖰ": 2467,
      "ᖱ": 2468,
      "ᖳ": 2469,
      "ᖴ": 2470,
      "ᖶ": 2471,
      "ᖸ": 2472,
      "ᖹ": 2473,
      "ᖺ": 2474,
      "ᖽ": 2475,
      "ᗀ": 2476,
      "ᗂ": 2477,
      "ᗃ": 2478,
      "ᗆ": 2479,
      "ᗈ": 2480,
      "ᗍ": 2481,
      "ᗎ": 2482,
      "ᗓ": 2483,
      "ᗖ": 2484,
      "ᗗ": 2485,
      "ᗘ": 2486,
      "ᗙ": 2487,
      "ᗚ": 2488,
      "ᗛ": 2489,
      "ᗜ": 2490,
      "ᗟ": 2491,
      "ᗤ": 2492,
      "ᗨ": 2493,
      "ᗬ": 2494,
      "ᗳ": 2495,
      "ᗸ": 2496,
      "ᗹ": 2497,
      "ᗻ": 2498,
      "ᗿ": 2499,
      "ᘂ": 2500,
      "ᘃ": 2501,
      "ᘄ": 2502,
      "ᘅ": 2503,
      "ᘇ": 2504,
      "ᘎ": 2505,
      "ᘏ": 2506,
      "ᘐ": 2507,
      "ᘑ": 2508,
      "ᘒ": 2509,
      "ᘗ": 2510,
      "ᘙ": 2511,
      "ᘚ": 2512,
      "ᘛ": 2513,
      "ᘝ": 2514,
      "ᘟ": 2515,
      "ᘥ": 2516,
      "ᘦ": 2517,
      "ᘨ": 2518,
      "ᘫ": 2519,
      "ᘬ": 2520,
      "ᘭ": 2521,
      "ᘯ": 2522,
      "ᘲ": 2523,
      "ᘳ": 2524,
      "ᘵ": 2525,
      "ᘻ": 2526,
      "ᘾ": 2527,
      "ᙀ": 2528,
      "ᙁ": 2529,
      "ᙄ": 2530,
      "ᙆ": 2531,
      "ᙇ": 2532,
      "ᙈ": 2533,
      "ᙉ": 2534,
      "ᙍ": 2535,
      "ᙐ": 2536,
      "ᙒ": 2537,
      "ᙓ": 2538,
      "ᙔ": 2539,
      "ᙙ": 2540,
      "ᙞ": 2541,
      "ᙡ": 2542,
      "ᙥ": 2543,
      "ᙦ": 2544,
      "ᙨ": 2545,
      "ᙩ": 2546,
      "ᙪ": 2547,
      "᙭": 2548,
      "ᙰ": 2549,
      "ᙽ": 2550,
      "ᚆ": 2551,
      "ᚇ": 2552,
      "ᚉ": 2553,
      "ᚋ": 2554,
      "ᚕ": 2555,
      "ᚘ": 2556,
      "᚝": 2557,
      "ᚠ": 2558,
      "ᚢ": 2559,
      "ᚣ": 2560,
      "ᚨ": 2561,
      "ᚬ": 2562,
      "ᚯ": 2563,
      "ᚰ": 2564,
      "ᚳ": 2565,
      "ᚵ": 2566,
      "ᚶ": 2567,
      "ᚻ": 2568,
      "ᚼ": 2569,
      "ᚽ": 2570,
      "ᛁ": 2571,
      "ᛂ": 2572,
      "ᛃ": 2573,
      "ᛅ": 2574,
      "ᛈ": 2575,
      "ᛊ": 2576,
      "ᛏ": 2577,
      "ᛒ": 2578,
      "ᛓ": 2579,
      "ᛔ": 2580,
      "ᛞ": 2581,
      "ᛠ": 2582,
      "ᛡ": 2583,
      "ᛥ": 2584,
      "ᛦ": 2585,
      "ᛨ": 2586,
      "ᛪ": 2587,
      "᛭": 2588,
      "ᛮ": 2589,
      "ᛯ": 2590,
      "ᛲ": 2591,
      "ᛶ": 2592,
      "ᛷ": 2593,
      "ᛸ": 2594,
      "᛺": 2595,
      "᛽": 2596,
      "᛿": 2597,
      "ᜀ": 2598,
      "ᜄ": 2599,
      "ᜅ": 2600,
      "ᜋ": 2601,
      "ᜍ": 2602,
      "ᜎ": 2603,
      "᜖": 2604,
      "᜙": 2605,
      "ᜢ": 2606,
      "ᜣ": 2607,
      "ᜤ": 2608,
      "ᜥ": 2609,
      "ᜦ": 2610,
      "ᜧ": 2611,
      "ᜨ": 2612,
      "ᜫ": 2613,
      "ᜯ": 2614,
      "᜸": 2615,
      "᜻": 2616,
      "᜿": 2617,
      "ᝀ": 2618,
      "ᝁ": 2619,
      "ᝂ": 2620,
      "ᝇ": 2621,
      "ᝈ": 2622,
      "ᝉ": 2623,
      "ᝏ": 2624,
      "᝕": 2625,
      "᝖": 2626,
      "᝛": 2627,
      "᝝": 2628,
      "ᝣ": 2629,
      "ᝪ": 2630,
      "ᝫ": 2631,
      "ᝯ": 2632,
      "᝱": 2633,
      "᝴": 2634,
      "᝵": 2635,
      "᝷": 2636,
      "᝿": 2637,
      "ក": 2638,
      "ខ": 2639,
      "ង": 2640,
      "ច": 2641,
      "ជ": 2642,
      "ឈ": 2643,
      "ញ": 2644,
      "ដ": 2645,
      "ឋ": 2646,
      "ឍ": 2647,
      "ណ": 2648,
      "ត": 2649,
      "ថ": 2650,
      "ទ": 2651,
      "ធ": 2652,
      "ន": 2653,
      "ប": 2654,
      "ព": 2655,
      "ភ": 2656,
      "ម": 2657,
      "យ": 2658,
      "រ": 2659,
      "ល": 2660,
      "វ": 2661,
      "ឝ": 2662,
      "ឞ": 2663,
      "ស": 2664,
      "ហ": 2665,
      "អ": 2666,
      "ឦ": 2667,
      "ឧ": 2668,
      "ឨ": 2669,
      "ឩ": 2670,
      "ឪ": 2671,
      "ឭ": 2672,
      "ឱ": 2673,
      "ា": 2674,
      "ឿ": 2675,
      "េ": 2676,
      "ែ": 2677,
      "ោ": 2678,
      "ៅ": 2679,
      "៖": 2680,
      "៛": 2681,
      "ៜ": 2682,
      "៞": 2683,
      "៦": 2684,
      "៫": 2685,
      "៭": 2686,
      "៮": 2687,
      "៯": 2688,
      "៱": 2689,
      "៳": 2690,
      "៴": 2691,
      "៷": 2692,
      "៸": 2693,
      "៽": 2694,
      "៾": 2695,
      "៿": 2696,
      "᠀": 2697,
      "᠂": 2698,
      "᠃": 2699,
      "᠅": 2700,
      "᠇": 2701,
      "᠈": 2702,
      "᠉": 2703,
      "᠊": 2704,
      "᠓": 2705,
      "᠕": 2706,
      "᠙": 2707,
      "᠜": 2708,
      "᠝": 2709,
      "᠟": 2710,
      "ᠠ": 2711,
      "ᠡ": 2712,
      "ᠣ": 2713,
      "ᠤ": 2714,
      "ᠥ": 2715,
      "ᠦ": 2716,
      "ᠧ": 2717,
      "ᠪ": 2718,
      "ᠫ": 2719,
      "ᠰ": 2720,
      "ᠲ": 2721,
      "ᠳ": 2722,
      "ᠵ": 2723,
      "ᠶ": 2724,
      "ᠷ": 2725,
      "ᠻ": 2726,
      "ᠿ": 2727,
      "ᡂ": 2728,
      "ᡅ": 2729,
      "ᡈ": 2730,
      "ᡎ": 2731,
      "ᡏ": 2732,
      "ᡐ": 2733,
      "ᡖ": 2734,
      "ᡘ": 2735,
      "ᡚ": 2736,
      "ᡢ": 2737,
      "ᡣ": 2738,
      "ᡥ": 2739,
      "ᡦ": 2740,
      "ᡪ": 2741,
      "ᡬ": 2742,
      "ᡮ": 2743,
      "ᡰ": 2744,
      "ᡳ": 2745,
      "ᡷ": 2746,
      "᡺": 2747,
      "᡻": 2748,
      "᡼": 2749,
      "᡿": 2750,
      "ᢀ": 2751,
      "ᢁ": 2752,
      "ᢂ": 2753,
      "ᢃ": 2754,
      "ᢅ": 2755,
      "ᢇ": 2756,
      "ᢈ": 2757,
      "ᢉ": 2758,
      "ᢋ": 2759,
      "ᢌ": 2760,
      "ᢏ": 2761,
      "ᢑ": 2762,
      "ᢗ": 2763,
      "ᢘ": 2764,
      "ᢚ": 2765,
      "ᢜ": 2766,
      "ᢝ": 2767,
      "ᢟ": 2768,
      "ᢥ": 2769,
      "ᢧ": 2770,
      "ᢨ": 2771,
      "ᢪ": 2772,
      "᢭": 2773,
      "᢮": 2774,
      "᢯": 2775,
      "ᢴ": 2776,
      "ᢵ": 2777,
      "ᢶ": 2778,
      "ᢻ": 2779,
      "ᢾ": 2780,
      "ᢿ": 2781,
      "ᣆ": 2782,
      "ᣈ": 2783,
      "ᣋ": 2784,
      "ᣌ": 2785,
      "ᣎ": 2786,
      "ᣓ": 2787,
      "ᣔ": 2788,
      "ᣕ": 2789,
      "ᣘ": 2790,
      "ᣙ": 2791,
      "ᣛ": 2792,
      "ᣜ": 2793,
      "ᣟ": 2794,
      "ᣢ": 2795,
      "ᣤ": 2796,
      "ᣪ": 2797,
      "ᣬ": 2798,
      "ᣭ": 2799,
      "ᣴ": 2800,
      "᣷": 2801,
      "᣺": 2802,
      "᣽": 2803,
      "᣾": 2804,
      "ᤀ": 2805,
      "ᤁ": 2806,
      "ᤄ": 2807,
      "ᤅ": 2808,
      "ᤎ": 2809,
      "ᤒ": 2810,
      "ᤔ": 2811,
      "ᤘ": 2812,
      "ᤝ": 2813,
      "ᤣ": 2814,
      "ᤪ": 2815,
      "ᤫ": 2816,
      "᤬": 2817,
      "᤭": 2818,
      "᤯": 2819,
      "ᤰ": 2820,
      "ᤱ": 2821,
      "ᤴ": 2822,
      "ᤷ": 2823,
      "ᤸ": 2824,
      "᤽": 2825,
      "᤾": 2826,
      "᤿": 2827,
      "᥀": 2828,
      "᥂": 2829,
      "᥃": 2830,
      "᥄": 2831,
      "᥅": 2832,
      "᥈": 2833,
      "᥊": 2834,
      "᥎": 2835,
      "ᥓ": 2836,
      "ᥗ": 2837,
      "ᥙ": 2838,
      "ᥛ": 2839,
      "ᥟ": 2840,
      "ᥠ": 2841,
      "ᥣ": 2842,
      "ᥨ": 2843,
      "ᥰ": 2844,
      "ᥱ": 2845,
      "ᥲ": 2846,
      "ᥳ": 2847,
      "ᥴ": 2848,
      "᥹": 2849,
      "᥼": 2850,
      "᥽": 2851,
      "ᦁ": 2852,
      "ᦂ": 2853,
      "ᦃ": 2854,
      "ᦄ": 2855,
      "ᦈ": 2856,
      "ᦊ": 2857,
      "ᦋ": 2858,
      "ᦌ": 2859,
      "ᦏ": 2860,
      "ᦕ": 2861,
      "ᦖ": 2862,
      "ᦘ": 2863,
      "ᦙ": 2864,
      "ᦛ": 2865,
      "ᦞ": 2866,
      "ᦤ": 2867,
      "ᦥ": 2868,
      "᦬": 2869,
      "᦭": 2870,
      "ᦰ": 2871,
      "ᦸ": 2872,
      "ᦹ": 2873,
      "ᦺ": 2874,
      "ᧀ": 2875,
      "ᧂ": 2876,
      "ᧄ": 2877,
      "ᧉ": 2878,
      "᧋": 2879,
      "᧍": 2880,
      "᧎": 2881,
      "᧑": 2882,
      "᧔": 2883,
      "᧖": 2884,
      "᧗": 2885,
      "᧘": 2886,
      "᧝": 2887,
      "᧞": 2888,
      "᧡": 2889,
      "᧦": 2890,
      "᧨": 2891,
      "᧩": 2892,
      "᧪": 2893,
      "᧬": 2894,
      "᧮": 2895,
      "᧱": 2896,
      "᧲": 2897,
      "᧶": 2898,
      "᧷": 2899,
      "᧿": 2900,
      "ᨀ": 2901,
      "ᨄ": 2902,
      "ᨍ": 2903,
      "ᨑ": 2904,
      "ᨒ": 2905,
      "ᨖ": 2906,
      "᨜": 2907,
      "᨝": 2908,
      "ᨦ": 2909,
      "ᨧ": 2910,
      "ᨨ": 2911,
      "ᨮ": 2912,
      "ᨱ": 2913,
      "ᨳ": 2914,
      "ᨴ": 2915,
      "ᨶ": 2916,
      "ᨷ": 2917,
      "ᨸ": 2918,
      "ᨹ": 2919,
      "ᨺ": 2920,
      "ᨻ": 2921,
      "ᨽ": 2922,
      "ᨿ": 2923,
      "ᩁ": 2924,
      "ᩃ": 2925,
      "ᩄ": 2926,
      "ᩊ": 2927,
      "ᩌ": 2928,
      "ᩓ": 2929,
      "᩟": 2930,
      "ᩣ": 2931,
      "ᩤ": 2932,
      "ᩮ": 2933,
      "᪀": 2934,
      "᪁": 2935,
      "᪅": 2936,
      "᪆": 2937,
      "᪈": 2938,
      "᪍": 2939,
      "᪏": 2940,
      "᪑": 2941,
      "᪓": 2942,
      "᪔": 2943,
      "᪗": 2944,
      "᪚": 2945,
      "᪛": 2946,
      "᪜": 2947,
      "᪞": 2948,
      "᪠": 2949,
      "᪣": 2950,
      "᪥": 2951,
      "᪦": 2952,
      "ᪧ": 2953,
      "᪨": 2954,
      "᪬": 2955,
      "᪮": 2956,
      "ᪿ": 2957,
      "ᫀ": 2958,
      "᫁": 2959,
      "᫅": 2960,
      "᫆": 2961,
      "᫉": 2962,
      "᫊": 2963,
      "ᫍ": 2964,
      "᫏": 2965,
      "᫐": 2966,
      "᫔": 2967,
      "᫕": 2968,
      "᫟": 2969,
      "᫢": 2970,
      "᫣": 2971,
      "᫤": 2972,
      "᫪": 2973,
      "᫫": 2974,
      "᫬": 2975,
      "᫯": 2976,
      "᫱": 2977,
      "᫵": 2978,
      "᫷": 2979,
      "᫻": 2980,
      "᫼": 2981,
      "᫽": 2982,
      "᫾": 2983,
      "ᬅ": 2984,
      "ᬉ": 2985,
      "ᬑ": 2986,
      "ᬘ": 2987,
      "ᬝ": 2988,
      "ᬟ": 2989,
      "ᬨ": 2990,
      "ᬩ": 2991,
      "ᬪ": 2992,
      "ᬫ": 2993,
      "ᬬ": 2994,
      "ᬭ": 2995,
      "ᬮ": 2996,
      "ᬯ": 2997,
      "ᬱ": 2998,
      "ᬲ": 2999,
      "ᬵ": 3000,
      "ᬾ": 3001,
      "ᬿ": 3002,
      "᭄": 3003,
      "ᭆ": 3004,
      "ᭋ": 3005,
      "᭑": 3006,
      "᭔": 3007,
      "᭗": 3008,
      "᭚": 3009,
      "᭛": 3010,
      "᭝": 3011,
      "᭞": 3012,
      "᭟": 3013,
      "᭠": 3014,
      "᭡": 3015,
      "᭥": 3016,
      "᭨": 3017,
      "᭶": 3018,
      "᭷": 3019,
      "᭸": 3020,
      "᭹": 3021,
      "᭽": 3022,
      "ᮆ": 3023,
      "ᮉ": 3024,
      "ᮌ": 3025,
      "ᮍ": 3026,
      "ᮔ": 3027,
      "ᮙ": 3028,
      "ᮚ": 3029,
      "ᮛ": 3030,
      "ᮜ": 3031,
      "ᮞ": 3032,
      "ᮟ": 3033,
      "ᮠ": 3034,
      "ᮦ": 3035,
      "ᮧ": 3036,
      "᮪": 3037,
      "᮴": 3038,
      "᮵": 3039,
      "᮶": 3040,
      "᮹": 3041,
      "ᮻ": 3042,
      "ᮼ": 3043,
      "ᮿ": 3044,
      "ᯀ": 3045,
      "ᯁ": 3046,
      "ᯂ": 3047,
      "ᯅ": 3048,
      "ᯈ": 3049,
      "ᯋ": 3050,
      "ᯐ": 3051,
      "ᯕ": 3052,
      "ᯗ": 3053,
      "ᯙ": 3054,
      "ᯟ": 3055,
      "ᯡ": 3056,
      "ᯢ": 3057,
      "ᯥ": 3058,
      "ᯧ": 3059,
      "ᯪ": 3060,
      "ᯬ": 3061,
      "᯲": 3062,
      "᯳": 3063,
      "᯷": 3064,
      "᯻": 3065,
      "᯼": 3066,
      "᯽": 3067,
      "᯿": 3068,
      "ᰀ": 3069,
      "ᰂ": 3070,
      "ᰅ": 3071,
      "ᰇ": 3072,
      "ᰈ": 3073,
      "ᰊ": 3074,
      "ᰍ": 3075,
      "ᰎ": 3076,
      "ᰐ": 3077,
      "ᰚ": 3078,
      "ᰜ": 3079,
      "ᰝ": 3080,
      "ᰞ": 3081,
      "ᰠ": 3082,
      "ᰡ": 3083,
      "ᰤ": 3084,
      "ᰥ": 3085,
      "ᰨ": 3086,
      "ᰫ": 3087,
      "᰸": 3088,
      "᰺": 3089,
      "᰽": 3090,
      "᰿": 3091,
      "᱄": 3092,
      "᱉": 3093,
      "᱌": 3094,
      "᱐": 3095,
      "᱑": 3096,
      "᱒": 3097,
      "᱔": 3098,
      "᱖": 3099,
      "ᱚ": 3100,
      "ᱜ": 3101,
      "ᱠ": 3102,
      "ᱡ": 3103,
      "ᱨ": 3104,
      "ᱪ": 3105,
      "ᱬ": 3106,
      "ᱱ": 3107,
      "ᱳ": 3108,
      "ᱴ": 3109,
      "ᱵ": 3110,
      "ᱸ": 3111,
      "ᱺ": 3112,
      "ᱻ": 3113,
      "ᱼ": 3114,
      "ᱽ": 3115,
      "ᲁ": 3116,
      "ᲊ": 3117,
      "᲌": 3118,
      "᲍": 3119,
      "᲼": 3120,
      "᳅": 3121,
      "᳈": 3122,
      "᳓": 3123,
      "ᳪ": 3124,
      "ᳯ": 3125,
      "ᳱ": 3126,
      "ᳳ": 3127,
      "᳷": 3128,
      "᳼": 3129,
      "᳾": 3130,
      "ᴀ": 3131,
      "ᴄ": 3132,
      "ᴅ": 3133,
      "ᴇ": 3134,
      "ᴈ": 3135,
      "ᴉ": 3136,
      "ᴊ": 3137,
      "ᴋ": 3138,
      "ᴌ": 3139,
      "ᴍ": 3140,
      "ᴏ": 3141,
      "ᴐ": 3142,
      "ᴑ": 3143,
      "ᴓ": 3144,
      "ᴕ": 3145,
      "ᴖ": 3146,
      "ᴗ": 3147,
      "ᴘ": 3148,
      "ᴙ": 3149,
      "ᴚ": 3150,
      "ᴛ": 3151,
      "ᴜ": 3152,
      "ᴝ": 3153,
      "ᴞ": 3154,
      "ᴠ": 3155,
      "ᴡ": 3156,
      "ᴢ": 3157,
      "ᴣ": 3158,
      "ᴧ": 3159,
      "ᴨ": 3160,
      "ᴫ": 3161,
      "ᴬ": 3162,
      "ᴮ": 3163,
      "ᴳ": 3164,
      "ᴷ": 3165,
      "ᴺ": 3166,
      "ᴻ": 3167,
      "ᵅ": 3168,
      "ᵋ": 3169,
      "ᵌ": 3170,
      "ᵍ": 3171,
      "ᵎ": 3172,
      "ᵐ": 3173,
      "ᵒ": 3174,
      "ᵓ": 3175,
      "ᵙ": 3176,
      "ᵚ": 3177,
      "ᵟ": 3178,
      "ᵠ": 3179,
      "ᵢ": 3180,
      "ᵤ": 3181,
      "ᵥ": 3182,
      "ᵫ": 3183,
      "ᵬ": 3184,
      "ᵭ": 3185,
      "ᵮ": 3186,
      "ᵰ": 3187,
      "ᵴ": 3188,
      "ᵵ": 3189,
      "ᵶ": 3190,
      "ᵹ": 3191,
      "ᵻ": 3192,
      "ᶁ": 3193,
      "ᶂ": 3194,
      "ᶃ": 3195,
      "ᶇ": 3196,
      "ᶈ": 3197,
      "ᶉ": 3198,
      "ᶋ": 3199,
      "ᶌ": 3200,
      "ᶑ": 3201,
      "ᶒ": 3202,
      "ᶔ": 3203,
      "ᶕ": 3204,
      "ᶖ": 3205,
      "ᶜ": 3206,
      "ᶠ": 3207,
      "ᶤ": 3208,
      "ᶥ": 3209,
      "ᶩ": 3210,
      "ᶫ": 3211,
      "ᶬ": 3212,
      "ᶲ": 3213,
      "ᶸ": 3214,
      "ᶻ": 3215,
      "ᶼ": 3216,
      "ᶾ": 3217,
      "᷶": 3218,
      "᷻": 3219,
      "ẟ": 3220,
      "἖": 3221,
      "἗": 3222,
      "἟": 3223,
      "὆": 3224,
      "὘": 3225,
      "᾿": 3226,
      "῀": 3227,
      "῅": 3228,
      "῕": 3229,
      "῱": 3230,
      "῾": 3231,
      "῿": 3232,
      "‐": 3233,
      "‑": 3234,
      "‒": 3235,
      "–": 3236,
      "—": 3237,
      "―": 3238,
      "‖": 3239,
      "‘": 3240,
      "’": 3241,
      "‚": 3242,
      "‛": 3243,
      "“": 3244,
      "”": 3245,
      "„": 3246,
      "‟": 3247,
      "†": 3248,
      "‡": 3249,
      "•": 3250,
      "‣": 3251,
      "․": 3252,
      "…": 3253,
      "‰": 3254,
      "′": 3255,
      "″": 3256,
      "‶": 3257,
      "‹": 3258,
      "›": 3259,
      "※": 3260,
      "‼": 3261,
      "⁄": 3262,
      "⁉": 3263,
      "⁰": 3264,
      "⁴": 3265,
      "⁵": 3266,
      "⁶": 3267,
      "⁷": 3268,
      "⁸": 3269,
      "⁹": 3270,
      "₁": 3271,
      "₂": 3272,
      "₈": 3273,
      "₉": 3274,
      "₍": 3275,
      "₎": 3276,
      "₤": 3277,
      "₩": 3278,
      "₪": 3279,
      "€": 3280,
      "₰": 3281,
      "₴": 3282,
      "₵": 3283,
      "₹": 3284,
      "₺": 3285,
      "⃣": 3286,
      "ℂ": 3287,
      "℃": 3288,
      "℅": 3289,
      "℉": 3290,
      "ℍ": 3291,
      "ℒ": 3292,
      "ℕ": 3293,
      "№": 3294,
      "℘": 3295,
      "ℙ": 3296,
      "ℚ": 3297,
      "ℛ": 3298,
      "ℜ": 3299,
      "ℝ": 3300,
      "™": 3301,
      "ℤ": 3302,
      "℮": 3303,
      "ℯ": 3304,
      "ℱ": 3305,
      "ℳ": 3306,
      "ⅎ": 3307,
      "⅓": 3308,
      "⅔": 3309,
      "ⅲ": 3310,
      "ⅾ": 3311,
      "ↄ": 3312,
      "←": 3313,
      "↑": 3314,
      "→": 3315,
      "↓": 3316,
      "↔": 3317,
      "↠": 3318,
      "↩": 3319,
      "↵": 3320,
      "⇄": 3321,
      "⇐": 3322,
      "⇒": 3323,
      "⇓": 3324,
      "⇣": 3325,
      "⇨": 3326,
      "∂": 3327,
      "∇": 3328,
      "−": 3329,
      "∕": 3330,
      "∗": 3331,
      "∙": 3332,
      "√": 3333,
      "∞": 3334,
      "∠": 3335,
      "∧": 3336,
      "∨": 3337,
      "∫": 3338,
      "∶": 3339,
      "∷": 3340,
      "∼": 3341,
      "∽": 3342,
      "≤": 3343,
      "≥": 3344,
      "≪": 3345,
      "≫": 3346,
      "⊏": 3347,
      "⊕": 3348,
      "⋅": 3349,
      "⋆": 3350,
      "⋔": 3351,
      "⎼": 3352,
      "⏩": 3353,
      "⏰": 3354,
      "⏹": 3355,
      "⏺": 3356,
      "①": 3357,
      "②": 3358,
      "③": 3359,
      "④": 3360,
      "ⓘ": 3361,
      "ⓛ": 3362,
      "ⓦ": 3363,
      "─": 3364,
      "━": 3365,
      "│": 3366,
      "┄": 3367,
      "┇": 3368,
      "┉": 3369,
      "┌": 3370,
      "┏": 3371,
      "┐": 3372,
      "┓": 3373,
      "└": 3374,
      "┗": 3375,
      "┘": 3376,
      "┛": 3377,
      "├": 3378,
      "═": 3379,
      "╬": 3380,
      "▂": 3381,
      "█": 3382,
      "░": 3383,
      "▒": 3384,
      "▓": 3385,
      "■": 3386,
      "□": 3387,
      "▪": 3388,
      "▫": 3389,
      "▬": 3390,
      "▲": 3391,
      "▶": 3392,
      "▷": 3393,
      "▸": 3394,
      "►": 3395,
      "▻": 3396,
      "▼": 3397,
      "◀": 3398,
      "◂": 3399,
      "◄": 3400,
      "◆": 3401,
      "◇": 3402,
      "◉": 3403,
      "◊": 3404,
      "○": 3405,
      "◌": 3406,
      "●": 3407,
      "◙": 3408,
      "◣": 3409,
      "◥": 3410,
      "◯": 3411,
      "◽": 3412,
      "◾": 3413,
      "☂": 3414,
      "★": 3415,
      "☆": 3416,
      "☎": 3417,
      "☑": 3418,
      "☕": 3419,
      "☚": 3420,
      "☛": 3421,
      "☜": 3422,
      "☝": 3423,
      "☞": 3424,
      "☰": 3425,
      "☺": 3426,
      "☻": 3427,
      "♀": 3428,
      "♂": 3429,
      "♈": 3430,
      "♉": 3431,
      "♊": 3432,
      "♋": 3433,
      "♌": 3434,
      "♍": 3435,
      "♎": 3436,
      "♏": 3437,
      "♐": 3438,
      "♑": 3439,
      "♒": 3440,
      "♓": 3441,
      "♠": 3442,
      "♡": 3443,
      "♢": 3444,
      "♣": 3445,
      "♥": 3446,
      "♦": 3447,
      "♨": 3448,
      "♩": 3449,
      "♪": 3450,
      "♫": 3451,
      "♬": 3452,
      "♭": 3453,
      "♻": 3454,
      "⚀": 3455,
      "⚅": 3456,
      "⚖": 3457,
      "⚠": 3458,
      "⚡": 3459,
      "⚽": 3460,
      "✅": 3461,
      "✆": 3462,
      "✈": 3463,
      "✉": 3464,
      "✋": 3465,
      "✍": 3466,
      "✎": 3467,
      "✓": 3468,
      "✔": 3469,
      "✘": 3470,
      "✙": 3471,
      "✝": 3472,
      "✞": 3473,
      "✡": 3474,
      "✥": 3475,
      "✧": 3476,
      "✨": 3477,
      "✫": 3478,
      "✲": 3479,
      "✳": 3480,
      "✸": 3481,
      "✽": 3482,
      "✿": 3483,
      "❀": 3484,
      "❄": 3485,
      "❇": 3486,
      "❌": 3487,
      "❍": 3488,
      "❏": 3489,
      "❐": 3490,
      "❑": 3491,
      "❒": 3492,
      "❓": 3493,
      "❖": 3494,
      "❗": 3495,
      "❝": 3496,
      "❞": 3497,
      "❡": 3498,
      "❣": 3499,
      "❤": 3500,
      "❦": 3501,
      "❶": 3502,
      "❷": 3503,
      "❸": 3504,
      "❹": 3505,
      "❺": 3506,
      "❻": 3507,
      "➊": 3508,
      "➋": 3509,
      "➌": 3510,
      "➍": 3511,
      "➎": 3512,
      "➏": 3513,
      "➐": 3514,
      "➑": 3515,
      "➒": 3516,
      "➔": 3517,
      "➕": 3518,
      "➖": 3519,
      "➡": 3520,
      "➢": 3521,
      "➤": 3522,
      "➥": 3523,
      "➧": 3524,
      "➶": 3525,
      "⟵": 3526,
      "⟶": 3527,
      "⡢": 3528,
      "⡣": 3529,
      "⡦": 3530,
      "⡪": 3531,
      "⤢": 3532,
      "⤤": 3533,
      "⤦": 3534,
      "⤬": 3535,
      "⤳": 3536,
      "⤵": 3537,
      "⤷": 3538,
      "⤽": 3539,
      "⤿": 3540,
      "⥤": 3541,
      "⦁": 3542,
      "⦿": 3543,
      "⨳": 3544,
      "⭐": 3545,
      "ⱥ": 3546,
      "ⱦ": 3547,
      "ⱶ": 3548,
      "ⲁ": 3549,
      "ⲉ": 3550,
      "ⲏ": 3551,
      "ⲓ": 3552,
      "ⲙ": 3553,
      "ⲛ": 3554,
      "ⲟ": 3555,
      "ⲡ": 3556,
      "ⲣ": 3557,
      "ⲥ": 3558,
      "ⲧ": 3559,
      "ⲩ": 3560,
      "ⲫ": 3561,
      "ⲱ": 3562,
      "ⲿ": 3563,
      "⳿": 3564,
      "ⴂ": 3565,
      "ⴆ": 3566,
      "ⴇ": 3567,
      "ⴈ": 3568,
      "ⴉ": 3569,
      "ⴊ": 3570,
      "ⴋ": 3571,
      "ⴎ": 3572,
      "ⴐ": 3573,
      "ⴒ": 3574,
      "ⴓ": 3575,
      "ⴗ": 3576,
      "ⴘ": 3577,
      "ⴙ": 3578,
      "ⴛ": 3579,
      "ⴜ": 3580,
      "ⴠ": 3581,
      "ⴡ": 3582,
      "ⴤ": 3583,
      "ⴥ": 3584,
      "⴦": 3585,
      "ⴧ": 3586,
      "ⵆ": 3587,
      "ⵤ": 3588,
      "ⶀ": 3589,
      "ⶁ": 3590,
      "ⶂ": 3591,
      "ⶃ": 3592,
      "ⶄ": 3593,
      "ⶅ": 3594,
      "ⶆ": 3595,
      "ⶈ": 3596,
      "ⶉ": 3597,
      "ⶊ": 3598,
      "ⶋ": 3599,
      "ⶌ": 3600,
      "ⶎ": 3601,
      "ⶏ": 3602,
      "ⶐ": 3603,
      "ⶒ": 3604,
      "ⶥ": 3605,
      "ⶨ": 3606,
      "ⶩ": 3607,
      "ⶪ": 3608,
      "ⶫ": 3609,
      "ⶬ": 3610,
      "ⶭ": 3611,
      "ⶰ": 3612,
      "ⶵ": 3613,
      "ⶶ": 3614,
      "ⶸ": 3615,
      "ⶽ": 3616,
      "ⷀ": 3617,
      "ⷃ": 3618,
      "ⷅ": 3619,
      "ⷈ": 3620,
      "ⷋ": 3621,
      "ⷍ": 3622,
      "ⷎ": 3623,
      "⷏": 3624,
      "ⷐ": 3625,
      "ⷑ": 3626,
      "ⷒ": 3627,
      "ⷓ": 3628,
      "ⷔ": 3629,
      "ⷕ": 3630,
      "ⷖ": 3631,
      "⷗": 3632,
      "ⷘ": 3633,
      "ⷙ": 3634,
      "ⷚ": 3635,
      "ⷛ": 3636,
      "ⷜ": 3637,
      "ⷝ": 3638,
      "ⷞ": 3639,
      "⷟": 3640,
      "⸀": 3641,
      "⸁": 3642,
      "⸂": 3643,
      "⸃": 3644,
      "⸄": 3645,
      "⸅": 3646,
      "⸆": 3647,
      "⸇": 3648,
      "⸈": 3649,
      "⸉": 3650,
      "⸊": 3651,
      "⸋": 3652,
      "⸌": 3653,
      "⸍": 3654,
      "⸎": 3655,
      "⸏": 3656,
      "⸐": 3657,
      "⸑": 3658,
      "⸒": 3659,
      "⸓": 3660,
      "⸔": 3661,
      "⸕": 3662,
      "⸖": 3663,
      "⸗": 3664,
      "⸘": 3665,
      "⸙": 3666,
      "⸚": 3667,
      "⸛": 3668,
      "⸜": 3669,
      "⸝": 3670,
      "⸞": 3671,
      "⸟": 3672,
      "⸠": 3673,
      "⸡": 3674,
      "⸢": 3675,
      "⸣": 3676,
      "⸤": 3677,
      "⸥": 3678,
      "⸦": 3679,
      "⸧": 3680,
      "⸨": 3681,
      "⸩": 3682,
      "⸪": 3683,
      "⸫": 3684,
      "⸬": 3685,
      "⸭": 3686,
      "⸮": 3687,
      "ⸯ": 3688,
      "⸰": 3689,
      "⸱": 3690,
      "⸲": 3691,
      "⸳": 3692,
      "⸴": 3693,
      "⸵": 3694,
      "⸶": 3695,
      "⸷": 3696,
      "⸸": 3697,
      "⸹": 3698,
      "⸺": 3699,
      "⸻": 3700,
      "⸼": 3701,
      "⸽": 3702,
      "⸾": 3703,
      "⸿": 3704,
      "⹀": 3705,
      "⹁": 3706,
      "⹂": 3707,
      "⹃": 3708,
      "⹄": 3709,
      "⹅": 3710,
      "⹆": 3711,
      "⹇": 3712,
      "⹈": 3713,
      "⹉": 3714,
      "⹊": 3715,
      "⹋": 3716,
      "⹌": 3717,
      "⹍": 3718,
      "⹎": 3719,
      "⹏": 3720,
      "⹐": 3721,
      "⹑": 3722,
      "⹒": 3723,
      "⹓": 3724,
      "⹔": 3725,
      "⹕": 3726,
      "⹖": 3727,
      "⹗": 3728,
      "⹘": 3729,
      "⹙": 3730,
      "⹚": 3731,
      "⹛": 3732,
      "⹜": 3733,
      "⹝": 3734,
      "⹞": 3735,
      "⹟": 3736,
      "⹠": 3737,
      "⹡": 3738,
      "⹢": 3739,
      "⹣": 3740,
      "⹤": 3741,
      "⹥": 3742,
      "⹦": 3743,
      "⹧": 3744,
      "⹨": 3745,
      "⹩": 3746,
      "⹪": 3747,
      "⹫": 3748,
      "⹬": 3749,
      "⹭": 3750,
      "⹮": 3751,
      "⹯": 3752,
      "⹰": 3753,
      "⹱": 3754,
      "⹲": 3755,
      "⹳": 3756,
      "⹴": 3757,
      "⹵": 3758,
      "⹶": 3759,
      "⹷": 3760,
      "⹸": 3761,
      "⹹": 3762,
      "⹺": 3763,
      "⹻": 3764,
      "⹼": 3765,
      "⹽": 3766,
      "⹾": 3767,
      "⹿": 3768,
      "⺀": 3769,
      "⺁": 3770,
      "⺂": 3771,
      "⺃": 3772,
      "⺄": 3773,
      "⺅": 3774,
      "⺆": 3775,
      "⺇": 3776,
      "⺈": 3777,
      "⺉": 3778,
      "⺊": 3779,
      "⺋": 3780,
      "⺌": 3781,
      "⺍": 3782,
      "⺎": 3783,
      "⺏": 3784,
      "⺐": 3785,
      "⺑": 3786,
      "⺒": 3787,
      "⺓": 3788,
      "⺔": 3789,
      "⺕": 3790,
      "⺖": 3791,
      "⺗": 3792,
      "⺘": 3793,
      "⺙": 3794,
      "⺚": 3795,
      "⺛": 3796,
      "⺜": 3797,
      "⺝": 3798,
      "⺞": 3799,
      "⺟": 3800,
      "⺠": 3801,
      "⺡": 3802,
      "⺢": 3803,
      "⺣": 3804,
      "⺤": 3805,
      "⺥": 3806,
      "⺦": 3807,
      "⺧": 3808,
      "⺨": 3809,
      "⺩": 3810,
      "⺪": 3811,
      "⺫": 3812,
      "⺬": 3813,
      "⺭": 3814,
      "⺮": 3815,
      "⺯": 3816,
      "⺰": 3817,
      "⺱": 3818,
      "⺲": 3819,
      "⺳": 3820,
      "⺴": 3821,
      "⺵": 3822,
      "⺶": 3823,
      "⺷": 3824,
      "⺸": 3825,
      "⺹": 3826,
      "⺺": 3827,
      "⺻": 3828,
      "⺼": 3829,
      "⺽": 3830,
      "⺾": 3831,
      "⺿": 3832,
      "⻀": 3833,
      "⻁": 3834,
      "⻂": 3835,
      "⻃": 3836,
      "⻄": 3837,
      "⻅": 3838,
      "⻆": 3839,
      "⻇": 3840,
      "⻈": 3841,
      "⻉": 3842,
      "⻊": 3843,
      "⻋": 3844,
      "⻌": 3845,
      "⻍": 3846,
      "⻎": 3847,
      "⻏": 3848,
      "⻐": 3849,
      "⻑": 3850,
      "⻒": 3851,
      "⻓": 3852,
      "⻔": 3853,
      "⻕": 3854,
      "⻖": 3855,
      "⻗": 3856,
      "⻘": 3857,
      "⻙": 3858,
      "⻚": 3859,
      "⻛": 3860,
      "⻜": 3861,
      "⻝": 3862,
      "⻞": 3863,
      "⻟": 3864,
      "⻠": 3865,
      "⻡": 3866,
      "⻢": 3867,
      "⻣": 3868,
      "⻤": 3869,
      "⻥": 3870,
      "⻦": 3871,
      "⻧": 3872,
      "⻨": 3873,
      "⻩": 3874,
      "⻪": 3875,
      "⻫": 3876,
      "⻬": 3877,
      "⻭": 3878,
      "⻮": 3879,
      "⻯": 3880,
      "⻰": 3881,
      "⻱": 3882,
      "⻲": 3883,
      "⻳": 3884,
      "⻴": 3885,
      "⻵": 3886,
      "⻶": 3887,
      "⻷": 3888,
      "⻸": 3889,
      "⼣": 3890,
      "⽭": 3891,
      "⾳": 3892,
      "、": 3893,
      "。": 3894,
      "〈": 3895,
      "〉": 3896,
      "《": 3897,
      "》": 3898,
      "「": 3899,
      "」": 3900,
      "『": 3901,
      "』": 3902,
      "【": 3903,
      "】": 3904,
      "〒": 3905,
      "〰": 3906,
      "あ": 3907,
      "い": 3908,
      "う": 3909,
      "お": 3910,
      "か": 3911,
      "き": 3912,
      "く": 3913,
      "こ": 3914,
      "さ": 3915,
      "し": 3916,
      "す": 3917,
      "せ": 3918,
      "た": 3919,
      "ち": 3920,
      "っ": 3921,
      "て": 3922,
      "と": 3923,
      "な": 3924,
      "に": 3925,
      "の": 3926,
      "は": 3927,
      "ま": 3928,
      "む": 3929,
      "め": 3930,
      "も": 3931,
      "よ": 3932,
      "ら": 3933,
      "り": 3934,
      "る": 3935,
      "れ": 3936,
      "を": 3937,
      "ア": 3938,
      "イ": 3939,
      "ォ": 3940,
      "オ": 3941,
      "キ": 3942,
      "ク": 3943,
      "サ": 3944,
      "シ": 3945,
      "ス": 3946,
      "タ": 3947,
      "ッ": 3948,
      "ツ": 3949,
      "テ": 3950,
      "ト": 3951,
      "ニ": 3952,
      "ネ": 3953,
      "ハ": 3954,
      "ヒ": 3955,
      "フ": 3956,
      "ホ": 3957,
      "マ": 3958,
      "ミ": 3959,
      "ム": 3960,
      "ュ": 3961,
      "ラ": 3962,
      "リ": 3963,
      "ル": 3964,
      "レ": 3965,
      "ロ": 3966,
      "ン": 3967,
      "・": 3968,
      "ー": 3969,
      "㗹": 3970,
      "㙀": 3971,
      "㜎": 3972,
      "㝕": 3973,
      "㡢": 3974,
      "㡣": 3975,
      "㡱": 3976,
      "㤤": 3977,
      "㤦": 3978,
      "㤨": 3979,
      "㤬": 3980,
      "㤭": 3981,
      "㤯": 3982,
      "㤱": 3983,
      "㤵": 3984,
      "㥹": 3985,
      "㱨": 3986,
      "㲼": 3987,
      "㳲": 3988,
      "㵺": 3989,
      "㷢": 3990,
      "䡣": 3991,
      "䡪": 3992,
      "䣬": 3993,
      "䤫": 3994,
      "䤬": 3995,
      "䤯": 3996,
      "䤴": 3997,
      "䤷": 3998,
      "䤹": 3999,
      "䤻": 4000,
      "䥬": 4001,
      "䰲": 4002,
      "一": 4003,
      "七": 4004,
      "三": 4005,
      "上": 4006,
      "下": 4007,
      "不": 4008,
      "世": 4009,
      "业": 4010,
      "两": 4011,
      "丨": 4012,
      "个": 4013,
      "中": 4014,
      "为": 4015,
      "么": 4016,
      "义": 4017,
      "之": 4018,
      "乌": 4019,
      "乐": 4020,
      "乔": 4021,
      "也": 4022,
      "书": 4023,
      "了": 4024,
      "事": 4025,
      "二": 4026,
      "五": 4027,
      "亚": 4028,
      "交": 4029,
      "京": 4030,
      "人": 4031,
      "什": 4032,
      "今": 4033,
      "介": 4034,
      "从": 4035,
      "他": 4036,
      "以": 4037,
      "们": 4038,
      "仰": 4039,
      "件": 4040,
      "任": 4041,
      "仿": 4042,
      "企": 4043,
      "伊": 4044,
      "会": 4045,
      "伦": 4046,
      "伯": 4047,
      "位": 4048,
      "体": 4049,
      "作": 4050,
      "你": 4051,
      "使": 4052,
      "依": 4053,
      "侰": 4054,
      "侳": 4055,
      "信": 4056,
      "修": 4057,
      "倉": 4058,
      "候": 4059,
      "偉": 4060,
      "備": 4061,
      "價": 4062,
      "充": 4063,
      "先": 4064,
      "光": 4065,
      "克": 4066,
      "免": 4067,
      "入": 4068,
      "公": 4069,
      "六": 4070,
      "兰": 4071,
      "共": 4072,
      "其": 4073,
      "具": 4074,
      "兹": 4075,
      "兽": 4076,
      "内": 4077,
      "写": 4078,
      "冰": 4079,
      "冷": 4080,
      "准": 4081,
      "凡": 4082,
      "出": 4083,
      "分": 4084,
      "切": 4085,
      "刊": 4086,
      "列": 4087,
      "刘": 4088,
      "初": 4089,
      "利": 4090,
      "别": 4091,
      "到": 4092,
      "前": 4093,
      "力": 4094,
      "办": 4095,
      "动": 4096,
      "助": 4097,
      "努": 4098,
      "劳": 4099,
      "势": 4100,
      "勒": 4101,
      "務": 4102,
      "包": 4103,
      "北": 4104,
      "医": 4105,
      "十": 4106,
      "千": 4107,
      "卖": 4108,
      "南": 4109,
      "卡": 4110,
      "危": 4111,
      "原": 4112,
      "厥": 4113,
      "厦": 4114,
      "去": 4115,
      "又": 4116,
      "及": 4117,
      "友": 4118,
      "双": 4119,
      "反": 4120,
      "取": 4121,
      "受": 4122,
      "变": 4123,
      "口": 4124,
      "古": 4125,
      "句": 4126,
      "只": 4127,
      "叭": 4128,
      "可": 4129,
      "台": 4130,
      "右": 4131,
      "叶": 4132,
      "号": 4133,
      "司": 4134,
      "各": 4135,
      "合": 4136,
      "吉": 4137,
      "同": 4138,
      "名": 4139,
      "后": 4140,
      "吕": 4141,
      "吗": 4142,
      "含": 4143,
      "听": 4144,
      "吴": 4145,
      "告": 4146,
      "呢": 4147,
      "和": 4148,
      "品": 4149,
      "哈": 4150,
      "哦": 4151,
      "商": 4152,
      "喀": 4153,
      "喇": 4154,
      "回": 4155,
      "因": 4156,
      "图": 4157,
      "土": 4158,
      "圣": 4159,
      "在": 4160,
      "地": 4161,
      "坎": 4162,
      "坦": 4163,
      "埃": 4164,
      "城": 4165,
      "基": 4166,
      "堡": 4167,
      "塔": 4168,
      "塞": 4169,
      "塢": 4170,
      "塼": 4171,
      "壬": 4172,
      "壹": 4173,
      "处": 4174,
      "夏": 4175,
      "外": 4176,
      "多": 4177,
      "大": 4178,
      "太": 4179,
      "夫": 4180,
      "夬": 4181,
      "央": 4182,
      "头": 4183,
      "奇": 4184,
      "奈": 4185,
      "契": 4186,
      "奖": 4187,
      "套": 4188,
      "奥": 4189,
      "女": 4190,
      "好": 4191,
      "如": 4192,
      "姆": 4193,
      "威": 4194,
      "子": 4195,
      "孔": 4196,
      "字": 4197,
      "孜": 4198,
      "季": 4199,
      "孤": 4200,
      "学": 4201,
      "孩": 4202,
      "孫": 4203,
      "學": 4204,
      "宁": 4205,
      "它": 4206,
      "安": 4207,
      "宓": 4208,
      "定": 4209,
      "实": 4210,
      "客": 4211,
      "室": 4212,
      "家": 4213,
      "容": 4214,
      "宾": 4215,
      "宿": 4216,
      "寢": 4217,
      "对": 4218,
      "将": 4219,
      "小": 4220,
      "尔": 4221,
      "就": 4222,
      "尼": 4223,
      "尽": 4224,
      "屋": 4225,
      "山": 4226,
      "岡": 4227,
      "川": 4228,
      "己": 4229,
      "巴": 4230,
      "市": 4231,
      "布": 4232,
      "希": 4233,
      "带": 4234,
      "常": 4235,
      "帺": 4236,
      "干": 4237,
      "平": 4238,
      "年": 4239,
      "床": 4240,
      "库": 4241,
      "应": 4242,
      "店": 4243,
      "府": 4244,
      "庭": 4245,
      "廣": 4246,
      "延": 4247,
      "开": 4248,
      "归": 4249,
      "当": 4250,
      "彬": 4251,
      "彼": 4252,
      "得": 4253,
      "徫": 4254,
      "微": 4255,
      "德": 4256,
      "心": 4257,
      "忠": 4258,
      "忪": 4259,
      "念": 4260,
      "怎": 4261,
      "性": 4262,
      "恋": 4263,
      "恶": 4264,
      "悪": 4265,
      "情": 4266,
      "想": 4267,
      "愛": 4268,
      "感": 4269,
      "態": 4270,
      "慕": 4271,
      "憲": 4272,
      "懂": 4273,
      "戈": 4274,
      "戏": 4275,
      "成": 4276,
      "我": 4277,
      "戒": 4278,
      "房": 4279,
      "扉": 4280,
      "手": 4281,
      "才": 4282,
      "扎": 4283,
      "托": 4284,
      "批": 4285,
      "技": 4286,
      "把": 4287,
      "报": 4288,
      "拆": 4289,
      "拉": 4290,
      "拍": 4291,
      "括": 4292,
      "持": 4293,
      "捌": 4294,
      "捷": 4295,
      "掉": 4296,
      "推": 4297,
      "提": 4298,
      "換": 4299,
      "搭": 4300,
      "摩": 4301,
      "撒": 4302,
      "播": 4303,
      "支": 4304,
      "收": 4305,
      "政": 4306,
      "数": 4307,
      "文": 4308,
      "料": 4309,
      "斯": 4310,
      "新": 4311,
      "方": 4312,
      "日": 4313,
      "时": 4314,
      "昆": 4315,
      "明": 4316,
      "是": 4317,
      "晶": 4318,
      "智": 4319,
      "曝": 4320,
      "曦": 4321,
      "曼": 4322,
      "最": 4323,
      "月": 4324,
      "有": 4325,
      "服": 4326,
      "木": 4327,
      "末": 4328,
      "本": 4329,
      "村": 4330,
      "条": 4331,
      "来": 4332,
      "杨": 4333,
      "東": 4334,
      "林": 4335,
      "果": 4336,
      "架": 4337,
      "柒": 4338,
      "柴": 4339,
      "标": 4340,
      "样": 4341,
      "根": 4342,
      "格": 4343,
      "档": 4344,
      "梅": 4345,
      "棬": 4346,
      "棱": 4347,
      "椤": 4348,
      "椦": 4349,
      "業": 4350,
      "概": 4351,
      "様": 4352,
      "模": 4353,
      "橐": 4354,
      "櫓": 4355,
      "正": 4356,
      "此": 4357,
      "毁": 4358,
      "母": 4359,
      "民": 4360,
      "氣": 4361,
      "水": 4362,
      "污": 4363,
      "汾": 4364,
      "沃": 4365,
      "沙": 4366,
      "法": 4367,
      "波": 4368,
      "洗": 4369,
      "洛": 4370,
      "津": 4371,
      "洪": 4372,
      "活": 4373,
      "浩": 4374,
      "浪": 4375,
      "海": 4376,
      "涫": 4377,
      "液": 4378,
      "游": 4379,
      "湯": 4380,
      "滭": 4381,
      "漏": 4382,
      "漣": 4383,
      "漸": 4384,
      "濪": 4385,
      "灣": 4386,
      "灭": 4387,
      "点": 4388,
      "無": 4389,
      "照": 4390,
      "爪": 4391,
      "爱": 4392,
      "版": 4393,
      "特": 4394,
      "状": 4395,
      "狼": 4396,
      "猛": 4397,
      "獲": 4398,
      "王": 4399,
      "玖": 4400,
      "玫": 4401,
      "现": 4402,
      "球": 4403,
      "理": 4404,
      "琰": 4405,
      "琳": 4406,
      "瑙": 4407,
      "瑰": 4408,
      "甄": 4409,
      "甘": 4410,
      "生": 4411,
      "產": 4412,
      "用": 4413,
      "甫": 4414,
      "甲": 4415,
      "申": 4416,
      "界": 4417,
      "畴": 4418,
      "疑": 4419,
      "疾": 4420,
      "病": 4421,
      "瘾": 4422,
      "登": 4423,
      "發": 4424,
      "的": 4425,
      "益": 4426,
      "监": 4427,
      "目": 4428,
      "直": 4429,
      "看": 4430,
      "真": 4431,
      "眼": 4432,
      "着": 4433,
      "睛": 4434,
      "知": 4435,
      "石": 4436,
      "码": 4437,
      "砍": 4438,
      "破": 4439,
      "硢": 4440,
      "硣": 4441,
      "碍": 4442,
      "磼": 4443,
      "礦": 4444,
      "礭": 4445,
      "示": 4446,
      "祈": 4447,
      "祝": 4448,
      "神": 4449,
      "福": 4450,
      "禹": 4451,
      "私": 4452,
      "秋": 4453,
      "科": 4454,
      "称": 4455,
      "秽": 4456,
      "稣": 4457,
      "稼": 4458,
      "突": 4459,
      "站": 4460,
      "端": 4461,
      "競": 4462,
      "第": 4463,
      "等": 4464,
      "签": 4465,
      "简": 4466,
      "算": 4467,
      "管": 4468,
      "箱": 4469,
      "節": 4470,
      "範": 4471,
      "米": 4472,
      "籸": 4473,
      "粉": 4474,
      "粤": 4475,
      "粵": 4476,
      "粽": 4477,
      "精": 4478,
      "素": 4479,
      "索": 4480,
      "紹": 4481,
      "組": 4482,
      "經": 4483,
      "続": 4484,
      "網": 4485,
      "緽": 4486,
      "縶": 4487,
      "縺": 4488,
      "繁": 4489,
      "纳": 4490,
      "线": 4491,
      "绍": 4492,
      "经": 4493,
      "给": 4494,
      "维": 4495,
      "缅": 4496,
      "缼": 4497,
      "网": 4498,
      "罕": 4499,
      "罗": 4500,
      "翰": 4501,
      "者": 4502,
      "而": 4503,
      "耳": 4504,
      "耶": 4505,
      "聖": 4506,
      "聞": 4507,
      "肃": 4508,
      "肯": 4509,
      "背": 4510,
      "能": 4511,
      "自": 4512,
      "至": 4513,
      "舍": 4514,
      "色": 4515,
      "花": 4516,
      "芳": 4517,
      "芸": 4518,
      "苏": 4519,
      "苦": 4520,
      "英": 4521,
      "范": 4522,
      "荐": 4523,
      "莫": 4524,
      "营": 4525,
      "萨": 4526,
      "落": 4527,
      "著": 4528,
      "蔡": 4529,
      "藤": 4530,
      "蝶": 4531,
      "行": 4532,
      "衛": 4533,
      "衣": 4534,
      "衦": 4535,
      "表": 4536,
      "製": 4537,
      "褦": 4538,
      "褫": 4539,
      "褯": 4540,
      "褵": 4541,
      "褷": 4542,
      "褹": 4543,
      "襤": 4544,
      "西": 4545,
      "要": 4546,
      "視": 4547,
      "解": 4548,
      "設": 4549,
      "詹": 4550,
      "語": 4551,
      "読": 4552,
      "认": 4553,
      "话": 4554,
      "诞": 4555,
      "语": 4556,
      "说": 4557,
      "诸": 4558,
      "诺": 4559,
      "谈": 4560,
      "費": 4561,
      "賣": 4562,
      "購": 4563,
      "责": 4564,
      "质": 4565,
      "贵": 4566,
      "贾": 4567,
      "赛": 4568,
      "赢": 4569,
      "走": 4570,
      "起": 4571,
      "路": 4572,
      "踽": 4573,
      "车": 4574,
      "软": 4575,
      "辛": 4576,
      "辰": 4577,
      "農": 4578,
      "边": 4579,
      "辽": 4580,
      "达": 4581,
      "过": 4582,
      "还": 4583,
      "这": 4584,
      "进": 4585,
      "远": 4586,
      "连": 4587,
      "迪": 4588,
      "选": 4589,
      "速": 4590,
      "造": 4591,
      "道": 4592,
      "遗": 4593,
      "選": 4594,
      "那": 4595,
      "部": 4596,
      "鄂": 4597,
      "释": 4598,
      "里": 4599,
      "重": 4600,
      "金": 4601,
      "錄": 4602,
      "钩": 4603,
      "铁": 4604,
      "長": 4605,
      "門": 4606,
      "防": 4607,
      "阿": 4608,
      "院": 4609,
      "险": 4610,
      "障": 4611,
      "难": 4612,
      "雅": 4613,
      "集": 4614,
      "雪": 4615,
      "電": 4616,
      "需": 4617,
      "霍": 4618,
      "霜": 4619,
      "静": 4620,
      "非": 4621,
      "面": 4622,
      "頁": 4623,
      "頼": 4624,
      "類": 4625,
      "顢": 4626,
      "顣": 4627,
      "顦": 4628,
      "顱": 4629,
      "题": 4630,
      "餤": 4631,
      "餦": 4632,
      "館": 4633,
      "餫": 4634,
      "餵": 4635,
      "餷": 4636,
      "餸": 4637,
      "餹": 4638,
      "餺": 4639,
      "餻": 4640,
      "饤": 4641,
      "马": 4642,
      "體": 4643,
      "高": 4644,
      "鬼": 4645,
      "魔": 4646,
      "鱦": 4647,
      "鲁": 4648,
      "鲿": 4649,
      "鳡": 4650,
      "鶦": 4651,
      "鶯": 4652,
      "鷨": 4653,
      "鸦": 4654,
      "鹭": 4655,
      "麦": 4656,
      "黃": 4657,
      "鼣": 4658,
      "齪": 4659,
      "齫": 4660,
      "齭": 4661,
      "龯": 4662,
      "ꜥ": 4663,
      "ꜰ": 4664,
      "ꜱ": 4665,
      "ꡢ": 4666,
      "ꡣ": 4667,
      "꡼": 4668,
      "ꤤ": 4669,
      "ꤵ": 4670,
      "ꤷ": 4671,
      "ꤸ": 4672,
      "ꤹ": 4673,
      "ꤿ": 4674,
      "ꥹ": 4675,
      "ꬁ": 4676,
      "ꬂ": 4677,
      "ꬃ": 4678,
      "ꬄ": 4679,
      "ꬅ": 4680,
      "ꬆ": 4681,
      "ꬉ": 4682,
      "ꬊ": 4683,
      "ꬋ": 4684,
      "ꬌ": 4685,
      "ꬎ": 4686,
      "ꬑ": 4687,
      "ꬓ": 4688,
      "ꬖ": 4689,
      "ꭱ": 4690,
      "ꭲ": 4691,
      "ꭳ": 4692,
      "ꭴ": 4693,
      "ꭹ": 4694,
      "ꭺ": 4695,
      "ꭼ": 4696,
      "ꭽ": 4697,
      "ꮁ": 4698,
      "ꮃ": 4699,
      "ꮄ": 4700,
      "ꮅ": 4701,
      "ꮆ": 4702,
      "ꮍ": 4703,
      "ꮓ": 4704,
      "ꮕ": 4705,
      "ꮛ": 4706,
      "ꮞ": 4707,
      "ꮠ": 4708,
      "ꮤ": 4709,
      "ꮨ": 4710,
      "ꮮ": 4711,
      "ꮯ": 4712,
      "ꮶ": 4713,
      "ꮺ": 4714,
      "ꮽ": 4715,
      "ꮾ": 4716,
      "ﬀ": 4717,
      "ﬁ": 4718,
      "﮲": 4719,
      "﮳": 4720,
      "﮴": 4721,
      "﮵": 4722,
      "﮶": 4723,
      "﮷": 4724,
      "﮸": 4725,
      "﮹": 4726,
      "﮺": 4727,
      "﮻": 4728,
      "﮼": 4729,
      "﮽": 4730,
      "﮾": 4731,
      "﮿": 4732,
      "﯀": 4733,
      "﯁": 4734,
      "﯂": 4735,
      "ﯨ": 4736,
      "ﯩ": 4737,
      "ﯹ": 4738,
      "ﯺ": 4739,
      "ﯻ": 4740,
      "ﰲ": 4741,
      "ﱠ": 4742,
      "﴾": 4743,
      "﴿": 4744,
      "ﷺ": 4745,
      "ﷻ": 4746,
      "﷼": 4747,
      "﷽": 4748,
      "︵": 4749,
      "ﹶ": 4750,
      "ﹸ": 4751,
      "ﹾ": 4752,
      "ﺀ": 4753,
      "ﺁ": 4754,
      "ﺂ": 4755,
      "ﺃ": 4756,
      "ﺄ": 4757,
      "ﺅ": 4758,
      "ﺆ": 4759,
      "ﺇ": 4760,
      "ﺈ": 4761,
      "ﺋ": 4762,
      "ﺌ": 4763,
      "ﺍ": 4764,
      "ﺎ": 4765,
      "ﺏ": 4766,
      "ﺐ": 4767,
      "ﺑ": 4768,
      "ﺒ": 4769,
      "ﺓ": 4770,
      "ﺔ": 4771,
      "ﺕ": 4772,
      "ﺖ": 4773,
      "ﺗ": 4774,
      "ﺘ": 4775,
      "ﺙ": 4776,
      "ﺚ": 4777,
      "ﺛ": 4778,
      "ﺜ": 4779,
      "ﺝ": 4780,
      "ﺞ": 4781,
      "ﺟ": 4782,
      "ﺠ": 4783,
      "ﺡ": 4784,
      "ﺢ": 4785,
      "ﺣ": 4786,
      "ﺤ": 4787,
      "ﺦ": 4788,
      "ﺧ": 4789,
      "ﺨ": 4790,
      "ﺩ": 4791,
      "ﺪ": 4792,
      "ﺫ": 4793,
      "ﺬ": 4794,
      "ﺭ": 4795,
      "ﺮ": 4796,
      "ﺯ": 4797,
      "ﺰ": 4798,
      "ﺱ": 4799,
      "ﺲ": 4800,
      "ﺳ": 4801,
      "ﺴ": 4802,
      "ﺵ": 4803,
      "ﺷ": 4804,
      "ﺸ": 4805,
      "ﺹ": 4806,
      "ﺺ": 4807,
      "ﺻ": 4808,
      "ﺼ": 4809,
      "ﺽ": 4810,
      "ﺾ": 4811,
      "ﺿ": 4812,
      "ﻀ": 4813,
      "ﻂ": 4814,
      "ﻃ": 4815,
      "ﻄ": 4816,
      "ﻆ": 4817,
      "ﻇ": 4818,
      "ﻈ": 4819,
      "ﻉ": 4820,
      "ﻊ": 4821,
      "ﻋ": 4822,
      "ﻌ": 4823,
      "ﻎ": 4824,
      "ﻏ": 4825,
      "ﻐ": 4826,
      "ﻑ": 4827,
      "ﻒ": 4828,
      "ﻓ": 4829,
      "ﻔ": 4830,
      "ﻕ": 4831,
      "ﻖ": 4832,
      "ﻗ": 4833,
      "ﻘ": 4834,
      "ﻙ": 4835,
      "ﻚ": 4836,
      "ﻛ": 4837,
      "ﻜ": 4838,
      "ﻝ": 4839,
      "ﻞ": 4840,
      "ﻟ": 4841,
      "ﻠ": 4842,
      "ﻡ": 4843,
      "ﻢ": 4844,
      "ﻣ": 4845,
      "ﻤ": 4846,
      "ﻥ": 4847,
      "ﻦ": 4848,
      "ﻧ": 4849,
      "ﻨ": 4850,
      "ﻩ": 4851,
      "ﻪ": 4852,
      "ﻫ": 4853,
      "ﻬ": 4854,
      "ﻭ": 4855,
      "ﻮ": 4856,
      "ﻯ": 4857,
      "ﻰ": 4858,
      "ﻱ": 4859,
      "ﻲ": 4860,
      "ﻳ": 4861,
      "ﻴ": 4862,
      "ﻷ": 4863,
      "ﻹ": 4864,
      "ﻻ": 4865,
      "ﻼ": 4866,
      "！": 4867,
      "（": 4868,
      "）": 4869,
      "，": 4870,
      "－": 4871,
      "：": 4872,
      "；": 4873,
      "？": 4874,
      "ａ": 4875,
      "ｃ": 4876,
      "ｄ": 4877,
      "ｅ": 4878,
      "ｆ": 4879,
      "ｇ": 4880,
      "ｈ": 4881,
      "ｉ": 4882,
      "ｊ": 4883,
      "ｎ": 4884,
      "ｏ": 4885,
      "ｐ": 4886,
      "ｒ": 4887,
      "ｓ": 4888,
      "ｔ": 4889,
      "ｗ": 4890,
      "ｙ": 4891,
      "￼": 4892,
      "𐌁": 4893,
      "𐌆": 4894,
      "𐌇": 4895,
      "𐌈": 4896,
      "𐌊": 4897,
      "𐌌": 4898,
      "𐌍": 4899,
      "𐌎": 4900,
      "𐌏": 4901,
      "𐌐": 4902,
      "𐌑": 4903,
      "𐌒": 4904,
      "𐌓": 4905,
      "𐌖": 4906,
      "𐌗": 4907,
      "𐌘": 4908,
      "𐌙": 4909,
      "𐌚": 4910,
      "𐌠": 4911,
      "𐌡": 4912,
      "𐌢": 4913,
      "𐩢": 4914,
      "𐩧": 4915,
      "𐩨": 4916,
      "𒄀": 4917,
      "𒅗": 4918,
      "𒈾": 4919,
      "𒌷": 4920,
      "𝐁": 4921,
      "𝐦": 4922,
      "𝐭": 4923,
      "𝐵": 4924,
      "𝐸": 4925,
      "𝐹": 4926,
      "𝐻": 4927,
      "𝐼": 4928,
      "𝐿": 4929,
      "𝑀": 4930,
      "𝑅": 4931,
      "𝑒": 4932,
      "𝑔": 4933,
      "𝑜": 4934,
      "𝒜": 4935,
      "𝒞": 4936,
      "𝒟": 4937,
      "𝒢": 4938,
      "𝒥": 4939,
      "𝒦": 4940,
      "𝒩": 4941,
      "𝒪": 4942,
      "𝒫": 4943,
      "𝒬": 4944,
      "𝒮": 4945,
      "𝒯": 4946,
      "𝒰": 4947,
      "𝒱": 4948,
      "𝒲": 4949,
      "𝒳": 4950,
      "𝒴": 4951,
      "𝒵": 4952,
      "𝒶": 4953,
      "𝒷": 4954,
      "𝒸": 4955,
      "𝒹": 4956,
      "𝒻": 4957,
      "𝒽": 4958,
      "𝒾": 4959,
      "𝒿": 4960,
      "𝓀": 4961,
      "𝓁": 4962,
      "𝓂": 4963,
      "𝓃": 4964,
      "𝓅": 4965,
      "𝓆": 4966,
      "𝓇": 4967,
      "𝓈": 4968,
      "𝓉": 4969,
      "𝓊": 4970,
      "𝓋": 4971,
      "𝓌": 4972,
      "𝓍": 4973,
      "𝓎": 4974,
      "𝓏": 4975,
      "𝓧": 4976,
      "𝓪": 4977,
      "𝓬": 4978,
      "𝓮": 4979,
      "𝓯": 4980,
      "𝓲": 4981,
      "𝓷": 4982,
      "𝓸": 4983,
      "𝓻": 4984,
      "𝓼": 4985,
      "𝓽": 4986,
      "𝓾": 4987,
      "𝓿": 4988,
      "𝔀": 4989,
      "𝔢": 4990,
      "𝔣": 4991,
      "𝔦": 4992,
      "𝔫": 4993,
      "𝔬": 4994,
      "𝔯": 4995,
      "𝔰": 4996,
      "𝔱": 4997,
      "𝔴": 4998,
      "𝔸": 4999,
      "𝔹": 5000,
      "𝔻": 5001,
      "𝔼": 5002,
      "𝔽": 5003,
      "𝔾": 5004,
      "𝕀": 5005,
      "𝕁": 5006,
      "𝕂": 5007,
      "𝕃": 5008,
      "𝕄": 5009,
      "𝕆": 5010,
      "𝕊": 5011,
      "𝕋": 5012,
      "𝕌": 5013,
      "𝕍": 5014,
      "𝕎": 5015,
      "𝕏": 5016,
      "𝕐": 5017,
      "𝕒": 5018,
      "𝕓": 5019,
      "𝕔": 5020,
      "𝕕": 5021,
      "𝕖": 5022,
      "𝕗": 5023,
      "𝕘": 5024,
      "𝕙": 5025,
      "𝕚": 5026,
      "𝕛": 5027,
      "𝕜": 5028,
      "𝕝": 5029,
      "𝕞": 5030,
      "𝕟": 5031,
      "𝕠": 5032,
      "𝕡": 5033,
      "𝕢": 5034,
      "𝕣": 5035,
      "𝕤": 5036,
      "𝕥": 5037,
      "𝕦": 5038,
      "𝕧": 5039,
      "𝕨": 5040,
      "𝕩": 5041,
      "𝕪": 5042,
      "𝕫": 5043,
      "𝖆": 5044,
      "𝖇": 5045,
      "𝖈": 5046,
      "𝖉": 5047,
      "𝖊": 5048,
      "𝖋": 5049,
      "𝖌": 5050,
      "𝖍": 5051,
      "𝖎": 5052,
      "𝖏": 5053,
      "𝖐": 5054,
      "𝖑": 5055,
      "𝖒": 5056,
      "𝖓": 5057,
      "𝖔": 5058,
      "𝖕": 5059,
      "𝖖": 5060,
      "𝖗": 5061,
      "𝖘": 5062,
      "𝖙": 5063,
      "𝖚": 5064,
      "𝖛": 5065,
      "𝖜": 5066,
      "𝖝": 5067,
      "𝖞": 5068,
      "𝖟": 5069,
      "𝟘": 5070,
      "𝟙": 5071,
      "𝟚": 5072,
      "𝟛": 5073,
      "𝟜": 5074,
      "𝟝": 5075,
      "𝟞": 5076,
      "𝟟": 5077,
      "𝟠": 5078,
      "𝟡": 5079,
      "𝟢": 5080,
      "𝟣": 5081,
      "𝟤": 5082,
      "𝟥": 5083,
      "𝟦": 5084,
      "𝟧": 5085,
      "𝟨": 5086,
      "𝟩": 5087,
      "𝟪": 5088,
      "𝟫": 5089,
      "🀄": 5090,
      "🅰": 5091,
      "🅱": 5092,
      "🅲": 5093,
      "🅳": 5094,
      "🅴": 5095,
      "🅵": 5096,
      "🅶": 5097,
      "🅷": 5098,
      "🅸": 5099,
      "🅹": 5100,
      "🅺": 5101,
      "🅻": 5102,
      "🅼": 5103,
      "🅽": 5104,
      "🅾": 5105,
      "🅿": 5106,
      "🆀": 5107,
      "🆁": 5108,
      "🆂": 5109,
      "🆃": 5110,
      "🆄": 5111,
      "🆅": 5112,
      "🆆": 5113,
      "🆇": 5114,
      "🆈": 5115,
      "🆉": 5116,
      "🇦": 5117,
      "🇧": 5118,
      "🇨": 5119,
      "🇩": 5120,
      "🇪": 5121,
      "🇫": 5122,
      "🇬": 5123,
      "🇭": 5124,
      "🇮": 5125,
      "🇯": 5126,
      "🇰": 5127,
      "🇱": 5128,
      "🇲": 5129,
      "🇳": 5130,
      "🇴": 5131,
      "🇵": 5132,
      "🇶": 5133,
      "🇷": 5134,
      "🇸": 5135,
      "🇹": 5136,
      "🇺": 5137,
      "🇼": 5138,
      "🇾": 5139,
      "🇿": 5140,
      "🌙": 5141,
      "🌱": 5142,
      "🌴": 5143,
      "🌸": 5144,
      "🌹": 5145,
      "🌺": 5146,
      "🌻": 5147,
      "🌼": 5148,
      "🌿": 5149,
      "🍀": 5150,
      "🍁": 5151,
      "🍂": 5152,
      "🍃": 5153,
      "🎤": 5154,
      "🎨": 5155,
      "🎲": 5156,
      "🎴": 5157,
      "🎶": 5158,
      "🎷": 5159,
      "🎸": 5160,
      "🎹": 5161,
      "🎺": 5162,
      "🏆": 5163,
      "🏠": 5164,
      "🏴": 5165,
      "🏻": 5166,
      "🏼": 5167,
      "🏽": 5168,
      "🏾": 5169,
      "🏿": 5170,
      "🐌": 5171,
      "👅": 5172,
      "👆": 5173,
      "👇": 5174,
      "👈": 5175,
      "👉": 5176,
      "👌": 5177,
      "👍": 5178,
      "👏": 5179,
      "👧": 5180,
      "👨": 5181,
      "👩": 5182,
      "👱": 5183,
      "👻": 5184,
      "💀": 5185,
      "💁": 5186,
      "💃": 5187,
      "💋": 5188,
      "💍": 5189,
      "💏": 5190,
      "💐": 5191,
      "💓": 5192,
      "💔": 5193,
      "💕": 5194,
      "💖": 5195,
      "💗": 5196,
      "💘": 5197,
      "💚": 5198,
      "💛": 5199,
      "💝": 5200,
      "💞": 5201,
      "💡": 5202,
      "💥": 5203,
      "💫": 5204,
      "💯": 5205,
      "💰": 5206,
      "💸": 5207,
      "💻": 5208,
      "📁": 5209,
      "📍": 5210,
      "📖": 5211,
      "📜": 5212,
      "📣": 5213,
      "📩": 5214,
      "📬": 5215,
      "📮": 5216,
      "📲": 5217,
      "📷": 5218,
      "🔅": 5219,
      "🔆": 5220,
      "🔊": 5221,
      "🔐": 5222,
      "🔘": 5223,
      "🔚": 5224,
      "🔝": 5225,
      "🔞": 5226,
      "🔥": 5227,
      "🔪": 5228,
      "🔮": 5229,
      "🔴": 5230,
      "🔵": 5231,
      "🔸": 5232,
      "🔹": 5233,
      "🔺": 5234,
      "🕋": 5235,
      "🕎": 5236,
      "🖐": 5237,
      "🗣": 5238,
      "🗽": 5239,
      "😀": 5240,
      "😁": 5241,
      "😂": 5242,
      "😃": 5243,
      "😄": 5244,
      "😅": 5245,
      "😆": 5246,
      "😈": 5247,
      "😉": 5248,
      "😊": 5249,
      "😋": 5250,
      "😌": 5251,
      "😍": 5252,
      "😎": 5253,
      "😘": 5254,
      "😜": 5255,
      "😝": 5256,
      "😡": 5257,
      "😢": 5258,
      "😥": 5259,
      "😦": 5260,
      "😨": 5261,
      "😫": 5262,
      "😭": 5263,
      "😱": 5264,
      "😳": 5265,
      "🙁": 5266,
      "🙂": 5267,
      "🙄": 5268,
      "🙇": 5269,
      "🙊": 5270,
      "🙏": 5271,
      "🚄": 5272,
      "🚎": 5273,
      "🚚": 5274,
      "🚩": 5275,
      "🚬": 5276,
      "🚶": 5277,
      "🛑": 5278,
      "🤎": 5279,
      "🤑": 5280,
      "🤔": 5281,
      "🤖": 5282,
      "🤣": 5283,
      "🤦": 5284,
      "🤫": 5285,
      "🤲": 5286,
      "🤳": 5287,
      "🥀": 5288,
      "🥁": 5289,
      "🥇": 5290,
      "🥶": 5291,
      "🦑": 5292,
      "🦰": 5293,
      "🦲": 5294,
      "𡯡": 5295,
      "𣬶": 5296,
      "𤵤": 5297,
      "𤸤": 5298,
      "񤤤": 5299,
      "񤨤": 5300,
      "񤫤": 5301,
      "񤷤": 5302,
      "񻭣": 5303,
      "񻭵": 5304,
      "򤤤": 5305,
      "򤪵": 5306,
      "򤭤": 5307,
      "򤷤": 5308,
      "򤹤": 5309,
      "򲼤": 5310,
      "򵡤": 5311,
      "򶷳": 5312,
      "򸫤": 5313,
      "򹯤": 5314,
      "򹯿": 5315,
      "򽱤": 5316,
      "򿪽": 5317,
      "󡢸": 5318,
      "󡢼": 5319,
      "󡣤": 5320,
      "󣬱": 5321,
      "󣬴": 5322,
      "󣬵": 5323,
      "󤤥": 5324,
      "󤫲": 5325,
      "󤬡": 5326,
      "󤬸": 5327,
      "󤬼": 5328,
      "󤬽": 5329,
      "󤷤": 5330,
      "󤷥": 5331,
      "󤸤": 5332,
      "󤿤": 5333,
      "󥯤": 5334,
      "󥰥": 5335,
      "󥵡": 5336,
      "󥹥": 5337,
      "󥿡": 5338,
      "󥿥": 5339,
      "##ሚ": 5340,
      "##ያ": 5341,
      "##ጐ": 5342,
      "##ሳ": 5343,
      "##ቁ": 5344,
      "##ል": 5345,
      "##ማ": 5346,
      "##ይ": 5347,
      "##መ": 5348,
      "##ለ": 5349,
      "##ከ": 5350,
      "##t": 5351,
      "##z": 5352,
      "##ኣ": 5353,
      "##ቸ": 5354,
      "##ን": 5355,
      "##ቀ": 5356,
      "##ታ": 5357,
      "##ው": 5358,
      "##ና": 5359,
      "##ጥ": 5360,
      "##ም": 5361,
      "##ጦ": 5362,
      "##ሩ": 5363,
      "##ባ": 5364,
      "##ት": 5365,
      "##ዙ": 5366,
      "##ላ": 5367,
      "##ዳ": 5368,
      "##ገ": 5369,
      "##ረ": 5370,
      "##ሰ": 5371,
      "##ብ": 5372,
      "##በ": 5373,
      "##ጅ": 5374,
      "##ቼ": 5375,
      "##ሁ": 5376,
      "##ራ": 5377,
      "##ጠ": 5378,
      "##ዲ": 5379,
      "##ሸ": 5380,
      "##ኘ": 5381,
      "##5": 5382,
      "##1": 5383,
      "##9": 5384,
      "##2": 5385,
      "##0": 5386,
      "##ጨ": 5387,
      "##ሱ": 5388,
      "##ቶ": 5389,
      "##ች": 5390,
      "##ሉ": 5391,
      "##ሽ": 5392,
      "##ዜ": 5393,
      "##አ": 5394,
      "##ግ": 5395,
      "##ዛ": 5396,
      "##ዝ": 5397,
      "##ደ": 5398,
      "##ር": 5399,
      "##የ": 5400,
      "##ፈ": 5401,
      "##ስ": 5402,
      "##ጎ": 5403,
      "##ዋ": 5404,
      "##ቲ": 5405,
      "##ኦ": 5406,
      "##ካ": 5407,
      "##ቄ": 5408,
      "##ፉ": 5409,
      "##ድ": 5410,
      "##ተ": 5411,
      "##ሠ": 5412,
      "##ሴ": 5413,
      "##ኒ": 5414,
      "##ቡ": 5415,
      "##ኪ": 5416,
      "##ፋ": 5417,
      "##ሶ": 5418,
      "##ዚ": 5419,
      "##ቬ": 5420,
      "##ቅ": 5421,
      "##ዱ": 5422,
      "##ሃ": 5423,
      "##ቴ": 5424,
      "##ኛ": 5425,
      "##ነ": 5426,
      "##ጻ": 5427,
      "##ወ": 5428,
      "##ጋ": 5429,
      "##ኽ": 5430,
      "##ፍ": 5431,
      "##ሄ": 5432,
      "##ዎ": 5433,
      "##ቻ": 5434,
      "##ቆ": 5435,
      "##ቺ": 5436,
      "##ህ": 5437,
      "##a": 5438,
      "##n": 5439,
      "##i": 5440,
      "##o": 5441,
      "##r": 5442,
      "##s": 5443,
      "##m": 5444,
      "##l": 5445,
      "##g": 5446,
      "##e": 5447,
      "##d": 5448,
      "##4": 5449,
      "##ዕ": 5450,
      "##ኝ": 5451,
      "##ዘ": 5452,
      "##ኢ": 5453,
      "##ሕ": 5454,
      "##ፓ": 5455,
      "##p": 5456,
      "##u": 5457,
      "##ጮ": 5458,
      "##ኮ": 5459,
      "##ሮ": 5460,
      "##ሜ": 5461,
      "##c": 5462,
      "##ᎍ": 5463,
      "##ᎋ": 5464,
      "##ᎌ": 5465,
      "##ᎉ": 5466,
      "##ᎃ": 5467,
      "##᎘": 5468,
      "##ᎆ": 5469,
      "##ሀ": 5470,
      "##ጉ": 5471,
      "##ኤ": 5472,
      "##ኑ": 5473,
      "##ጊ": 5474,
      "##ቹ": 5475,
      "##ቢ": 5476,
      "##ሻ": 5477,
      "##ሟ": 5478,
      "##ቦ": 5479,
      "##ፎ": 5480,
      "##ክ": 5481,
      "##ኖ": 5482,
      "##ሎ": 5483,
      "##ጂ": 5484,
      "##ዶ": 5485,
      "##ዉ": 5486,
      "##ቱ": 5487,
      "##ሺ": 5488,
      "##ሲ": 5489,
      "##ቃ": 5490,
      "##ጣ": 5491,
      "##ዊ": 5492,
      "##ሪ": 5493,
      "##ዩ": 5494,
      "##6": 5495,
      "##ሌ": 5496,
      "##о": 5497,
      "##т": 5498,
      "##м": 5499,
      "##к": 5500,
      "##в": 5501,
      "##y": 5502,
      "##ኙ": 5503,
      "##ፕ": 5504,
      "##እ": 5505,
      "##ሯ": 5506,
      "##ዮ": 5507,
      "##w": 5508,
      "##ፊ": 5509,
      "##ሆ": 5510,
      "##ሹ": 5511,
      "##ኩ": 5512,
      "##ጆ": 5513,
      "##f": 5514,
      "##k": 5515,
      "##ቷ": 5516,
      "##ጓ": 5517,
      "##ข": 5518,
      "##า": 5519,
      "##ኞ": 5520,
      "##ሣ": 5521,
      "##ዔ": 5522,
      "##ሞ": 5523,
      "##ሊ": 5524,
      "##ፒ": 5525,
      "##ኬ": 5526,
      "##ቂ": 5527,
      "##ቈ": 5528,
      "##ጡ": 5529,
      "##ሓ": 5530,
      "##ጫ": 5531,
      "##ጭ": 5532,
      "##ኔ": 5533,
      "##ፌ": 5534,
      "##8": 5535,
      "##3": 5536,
      "##ዞ": 5537,
      "##ኋ": 5538,
      "##ዴ": 5539,
      "##ሙ": 5540,
      "##ቤ": 5541,
      "##ዬ": 5542,
      "##ፅ": 5543,
      "##ፀ": 5544,
      "##ኃ": 5545,
      "##ጢ": 5546,
      "##ኀ": 5547,
      "##ق": 5548,
      "##ت": 5549,
      "##ل": 5550,
      "##፳": 5551,
      "##ዓ": 5552,
      "##ሢ": 5553,
      "##ኹ": 5554,
      "##ፖ": 5555,
      "##ا": 5556,
      "##ح": 5557,
      "##ሷ": 5558,
      "##7": 5559,
      "##ሖ": 5560,
      "##ሬ": 5561,
      "##h": 5562,
      "##ቪ": 5563,
      "##ዖ": 5564,
      "##ቧ": 5565,
      "##ቋ": 5566,
      "##ሏ": 5567,
      "##ጵ": 5568,
      "##ሐ": 5569,
      "##ጽ": 5570,
      "##ኸ": 5571,
      "##ጀ": 5572,
      "##ዟ": 5573,
      "##ጸ": 5574,
      "##ጌ": 5575,
      "##и": 5576,
      "##н": 5577,
      "##г": 5578,
      "##ሂ": 5579,
      "##ሾ": 5580,
      "##ጹ": 5581,
      "##ሼ": 5582,
      "##ቨ": 5583,
      "##ኅ": 5584,
      "##ጃ": 5585,
      "##ፃ": 5586,
      "##ቕ": 5587,
      "##ኗ": 5588,
      "##q": 5589,
      "##ে": 5590,
      "##া": 5591,
      "##হ": 5592,
      "##ፔ": 5593,
      "##ሑ": 5594,
      "##ሔ": 5595,
      "##ጲ": 5596,
      "##ጶ": 5597,
      "##ዑ": 5598,
      "##ዪ": 5599,
      "##ቭ": 5600,
      "##ዤ": 5601,
      "##ጁ": 5602,
      "##ፏ": 5603,
      "##፫": 5604,
      "##፬": 5605,
      "##ጄ": 5606,
      "##ሥ": 5607,
      "##б": 5608,
      "##x": 5609,
      "##b": 5610,
      "##م": 5611,
      "##ዌ": 5612,
      "##ዣ": 5613,
      "##ዃ": 5614,
      "##ጤ": 5615,
      "##ﻟ": 5616,
      "##ﻠ": 5617,
      "##ﻤ": 5618,
      "##ﺆ": 5619,
      "##ﻣ": 5620,
      "##ﻨ": 5621,
      "##ﻲ": 5622,
      "##ﻥ": 5623,
      "##ጿ": 5624,
      "##ቿ": 5625,
      "##ቍ": 5626,
      "##ጳ": 5627,
      "##ቾ": 5628,
      "##ቫ": 5629,
      "##÷": 5630,
      "##е": 5631,
      "##ч": 5632,
      "##j": 5633,
      "##ጧ": 5634,
      "##ኾ": 5635,
      "##ዷ": 5636,
      "##ፆ": 5637,
      "##ي": 5638,
      "##ጩ": 5639,
      "##ጺ": 5640,
      "##ዥ": 5641,
      "##د": 5642,
      "##ن": 5643,
      "##ك": 5644,
      "##ኻ": 5645,
      "##ዐ": 5646,
      "##ጾ": 5647,
      "##ኡ": 5648,
      "##ፁ": 5649,
      "##ኁ": 5650,
      "##ጔ": 5651,
      "##ዦ": 5652,
      "##ሒ": 5653,
      "##ר": 5654,
      "##א": 5655,
      "##ፇ": 5656,
      "##ፑ": 5657,
      "##ﻐ": 5658,
      "##ﺖ": 5659,
      "##ر": 5660,
      "##ه": 5661,
      "##ዽ": 5662,
      "##д": 5663,
      "##а": 5664,
      "##ы": 5665,
      "##ط": 5666,
      "##ጏ": 5667,
      "##ع": 5668,
      "##ز": 5669,
      "##п": 5670,
      "##р": 5671,
      "##я": 5672,
      "##с": 5673,
      "##ቮ": 5674,
      "##ኍ": 5675,
      "##ꬃ": 5676,
      "##ፐ": 5677,
      "##v": 5678,
      "##ጼ": 5679,
      "##ሇ": 5680,
      "##ب": 5681,
      "##و": 5682,
      "##ة": 5683,
      "##፩": 5684,
      "##ኚ": 5685,
      "##ጪ": 5686,
      "##ቝ": 5687,
      "##ዠ": 5688,
      "##ኼ": 5689,
      "##ف": 5690,
      "##ሡ": 5691,
      "##ጰ": 5692,
      "##ቐ": 5693,
      "##у": 5694,
      "##፪": 5695,
      "##ی": 5696,
      "##ژ": 5697,
      "##ኳ": 5698,
      "##ሗ": 5699,
      "##ዢ": 5700,
      "##ב": 5701,
      "##י": 5702,
      "##ש": 5703,
      "##ו": 5704,
      "##ל": 5705,
      "##ⶀ": 5706,
      "##र": 5707,
      "##त": 5708,
      "##ी": 5709,
      "##क": 5710,
      "##ा": 5711,
      "##ቖ": 5712,
      "##л": 5713,
      "##ь": 5714,
      "##ю": 5715,
      "##ዡ": 5716,
      "##ኯ": 5717,
      "##🇩": 5718,
      "##፲": 5719,
      "##س": 5720,
      "##ቓ": 5721,
      "##з": 5722,
      "##ि": 5723,
      "##व": 5724,
      "##ह": 5725,
      "##इ": 5726,
      "##स": 5727,
      "##श": 5728,
      "##ቌ": 5729,
      "##ቛ": 5730,
      "##᎓": 5731,
      "##ш": 5732,
      "##ቩ": 5733,
      "##ጙ": 5734,
      "##ፄ": 5735,
      "##፮": 5736,
      "##፻": 5737,
      "##፯": 5738,
      "##᎜": 5739,
      "##ኲ": 5740,
      "##خ": 5741,
      "##ص": 5742,
      "##ኺ": 5743,
      "##ሿ": 5744,
      "##ዒ": 5745,
      "##°": 5746,
      "##¥": 5747,
      "##ኜ": 5748,
      "##ﺎ": 5749,
      "##ﺀ": 5750,
      "##ﺕ": 5751,
      "##ሦ": 5752,
      "##ʻ": 5753,
      "##፱": 5754,
      "##ब": 5755,
      "##ጬ": 5756,
      "##µ": 5757,
      "##ፂ": 5758,
      "##ח": 5759,
      "##ጝ": 5760,
      "##ጇ": 5761,
      "##ج": 5762,
      "##ዧ": 5763,
      "##ж": 5764,
      "##ኄ": 5765,
      "##х": 5766,
      "##¨": 5767,
      "##ጯ": 5768,
      "##ס": 5769,
      "##פ": 5770,
      "##ק": 5771,
      "##ה": 5772,
      "##¹": 5773,
      "##ट": 5774,
      "##ת": 5775,
      "##ኵ": 5776,
      "##᎑": 5777,
      "##࿣": 5778,
      "##ᖧ": 5779,
      "##᦭": 5780,
      "##ι": 5781,
      "##٢": 5782,
      "##١": 5783,
      "##ጕ": 5784,
      "##ذ": 5785,
      "##อ": 5786,
      "##บ": 5787,
      "##ƒ": 5788,
      "##ኊ": 5789,
      "##¸": 5790,
      "##፸": 5791,
      "##ኆ": 5792,
      "##ꬌ": 5793,
      "##ꬂ": 5794,
      "##ᅧ": 5795,
      "##ᆫ": 5796,
      "##ዯ": 5797,
      "##ኧ": 5798,
      "##ኟ": 5799,
      "##ц": 5800,
      "##ø": 5801,
      "##ጒ": 5802,
      "##ዻ": 5803,
      "##ኰ": 5804,
      "##ﺘ": 5805,
      "##ﻦ": 5806,
      "##ǥ": 5807,
      "##዗": 5808,
      "##ष": 5809,
      "##ण": 5810,
      "##щ": 5811,
      "##ʤ": 5812,
      "##🇷": 5813,
      "##🇪": 5814,
      "##🇹": 5815,
      "##ল": 5816,
      "##গ": 5817,
      "##→": 5818,
      "##ዸ": 5819,
      "##🇬": 5820,
      "##፵": 5821,
      "##ำ": 5822,
      "##ล": 5823,
      "##ง": 5824,
      "##מ": 5825,
      "##צ": 5826,
      "##ם": 5827,
      "##ᇔ": 5828,
      "##ᢁ": 5829,
      "##ᵒ": 5830,
      "##ꮤ": 5831,
      "##ད": 5832,
      "##ʒ": 5833,
      "##ቇ": 5834,
      "##ض": 5835,
      "##ג": 5836,
      "##€": 5837,
      "##ኌ": 5838,
      "##ﻴ": 5839,
      "##ﺌ": 5840,
      "##ᎈ": 5841,
      "##᎝": 5842,
      "##᎚": 5843,
      "##ᎀ": 5844,
      "##፴": 5845,
      "##ৈ": 5846,
      "##র": 5847,
      "##ি": 5848,
      "##👉": 5849,
      "##୴": 5850,
      "##ڡ": 5851,
      "##ᄑ": 5852,
      "##፰": 5853,
      "##ሤ": 5854,
      "##ኴ": 5855,
      "##ሧ": 5856,
      "##থ": 5857,
      "##ী": 5858,
      "##দ": 5859,
      "##ो": 5860,
      "##ظ": 5861,
      "##ะ": 5862,
      "##ว": 5863,
      "##น": 5864,
      "##ก": 5865,
      "##᎟": 5866,
      "##ᎅ": 5867,
      "##᫷": 5868,
      "##٨": 5869,
      "##፼": 5870,
      "##፶": 5871,
      "##𝔻": 5872,
      "##𝔼": 5873,
      "##𝔽": 5874,
      "##𝔾": 5875,
      "##ℍ": 5876,
      "##𝕀": 5877,
      "##𝕁": 5878,
      "##𝕂": 5879,
      "##𝕃": 5880,
      "##𝕄": 5881,
      "##ℕ": 5882,
      "##𝕆": 5883,
      "##ℙ": 5884,
      "##ℚ": 5885,
      "##ℝ": 5886,
      "##𝕊": 5887,
      "##𝕋": 5888,
      "##𝕌": 5889,
      "##𝕍": 5890,
      "##𝕎": 5891,
      "##𝕏": 5892,
      "##𝕐": 5893,
      "##ℤ": 5894,
      "##ı": 5895,
      "##፷": 5896,
      "##፹": 5897,
      "##ד": 5898,
      "##ן": 5899,
      "##ቯ": 5900,
      "##ቊ": 5901,
      "##፭": 5902,
      "##ᤰ": 5903,
      "##ˤ": 5904,
      "##ƹ": 5905,
      "##ρ": 5906,
      "##ش": 5907,
      "##ٱ": 5908,
      "##˝": 5909,
      "##ಫ": 5910,
      "##ө": 5911,
      "##ᬮ": 5912,
      "##౞": 5913,
      "##ʦ": 5914,
      "##࠮": 5915,
      "##ඡ": 5916,
      "##य": 5917,
      "##ﻬ": 5918,
      "##ﻢ": 5919,
      "##¤": 5920,
      "##ዿ": 5921,
      "##ﺸ": 5922,
      "##ई": 5923,
      "##ڸ": 5924,
      "##ߴ": 5925,
      "##ݺ": 5926,
      "##զ": 5927,
      "##ɽ": 5928,
      "##£": 5929,
      "##ᄌ": 5930,
      "##ᅭ": 5931,
      "##ᆳ": 5932,
      "##ƺ": 5933,
      "##󣬵": 5934,
      "##ጴ": 5935,
      "##द": 5936,
      "##ध": 5937,
      "##×": 5938,
      "##ዼ": 5939,
      "##٤": 5940,
      "##ء": 5941,
      "##ጘ": 5942,
      "##᎐": 5943,
      "##ड": 5944,
      "##न": 5945,
      "##ኇ": 5946,
      "##ա": 5947,
      "##կ": 5948,
      "##ց": 5949,
      "##ն": 5950,
      "##ե": 5951,
      "##լ": 5952,
      "##ո": 5953,
      "##ւ": 5954,
      "##ᎇ": 5955,
      "##ช": 5956,
      "##፺": 5957,
      "##ቑ": 5958,
      "##ዅ": 5959,
      "##স": 5960,
      "##ং": 5961,
      "##ক": 5962,
      "##ন": 5963,
      "##ꬊ": 5964,
      "##🇰": 5965,
      "##ल": 5966,
      "##ব": 5967,
      "##চ": 5968,
      "##ত": 5969,
      "##´": 5970,
      "##ኂ": 5971,
      "##þ": 5972,
      "##ω": 5973,
      "##૬": 5974,
      "##༪": 5975,
      "##౹": 5976,
      "##ಅ": 5977,
      "##❗": 5978,
      "##⹵": 5979,
      "##ﻮ": 5980,
      "##ﺝ": 5981,
      "##ט": 5982,
      "##נ": 5983,
      "##ـ": 5984,
      "##ى": 5985,
      "##ﻗ": 5986,
      "##ﺍ": 5987,
      "##غ": 5988,
      "##ጛ": 5989,
      "##ª": 5990,
      "##ए": 5991,
      "##ቜ": 5992,
      "##ﺣ": 5993,
      "##ﺪ": 5994,
      "##ﻩ": 5995,
      "##ᐺ": 5996,
      "##ᢥ": 5997,
      "##ഇ": 5998,
      "##ܜ": 5999,
      "##ભ": 6000,
      "##᎞": 6001,
      "##᎙": 6002,
      "##ᎊ": 6003,
      "##♥": 6004,
      "##᎗": 6005,
      "##ᎏ": 6006,
      "##᎒": 6007,
      "##᎖": 6008,
      "##ᎂ": 6009,
      "##ᎁ": 6010,
      "##ث": 6011,
      "##¦": 6012,
      "##¾": 6013,
      "##ठ": 6014,
      "##च": 6015,
      "##ץ": 6016,
      "##घ": 6017,
      "##ﺨ": 6018,
      "##ﻔ": 6019,
      "##ﻒ": 6020,
      "##ﺳ": 6021,
      "##ﺠ": 6022,
      "##ﺑ": 6023,
      "##׬": 6024,
      "##բ": 6025,
      "##ᎎ": 6026,
      "##ዀ": 6027,
      "##ﺰ": 6028,
      "##ቔ": 6029,
      "##½": 6030,
      "##ዏ": 6031,
      "##ᥲ": 6032,
      "##ᄅ": 6033,
      "##ᅩ": 6034,
      "##ᆮ": 6035,
      "##٦": 6036,
      "##ঔ": 6037,
      "##ᕪ": 6038,
      "##ԏ": 6039,
      "##য": 6040,
      "##ও": 6041,
      "##ۦ": 6042,
      "##چ": 6043,
      "##٠": 6044,
      "##ʼ": 6045,
      "##᎔": 6046,
      "##ﻜ": 6047,
      "##ﺏ": 6048,
      "##၅": 6049,
      "##म": 6050,
      "##ग": 6051,
      "##ⶋ": 6052,
      "##ﺋ": 6053,
      "##ﺮ": 6054,
      "##ﻫ": 6055,
      "##▸": 6056,
      "##୻": 6057,
      "##ዂ": 6058,
      "##α": 6059,
      "##᥃": 6060,
      "##ല": 6061,
      "##э": 6062,
      "##ौ": 6063,
      "##ﻘ": 6064,
      "##🏾": 6065,
      "##σ": 6066,
      "##τ": 6067,
      "##ο": 6068,
      "##υ": 6069,
      "##ⶭ": 6070,
      "##🇼": 6071,
      "##ষ": 6072,
      "##ﻋ": 6073,
      "##╬": 6074,
      "##®": 6075,
      "##ƥ": 6076,
      "##ʾ": 6077,
      "##ɾ": 6078,
      "##λ": 6079,
      "##η": 6080,
      "##ν": 6081,
      "##κ": 6082,
      "##ﺤ": 6083,
      "##׮": 6084,
      "##ঠ": 6085,
      "##఍": 6086,
      "##ᑵ": 6087,
      "##ਟ": 6088,
      "##ႀ": 6089,
      "##ࣕ": 6090,
      "##ᄐ": 6091,
      "##ট": 6092,
      "##❷": 6093,
      "##ጱ": 6094,
      "##ע": 6095,
      "##᎛": 6096,
      "##♦": 6097,
      "##🇲": 6098,
      "##ך": 6099,
      "##ډ": 6100,
      "##ࡸ": 6101,
      "##੆": 6102,
      "##ﻚ": 6103,
      "##ය": 6104,
      "##න": 6105,
      "##כ": 6106,
      "##💡": 6107,
      "##ᦊ": 6108,
      "##ﺬ": 6109,
      "##ﺭ": 6110,
      "##🌸": 6111,
      "##🌺": 6112,
      "##प": 6113,
      "##ਠ": 6114,
      "##ᔊ": 6115,
      "##৑": 6116,
      "##ᖺ": 6117,
      "##ᨮ": 6118,
      "##਋": 6119,
      "##👇": 6120,
      "##ł": 6121,
      "##ﺼ": 6122,
      "##﷽": 6123,
      "##پ": 6124,
      "##ꬄ": 6125,
      "##💝": 6126,
      "##ﺩ": 6127,
      "##ﻭ": 6128,
      "##∕": 6129,
      "##ɫ": 6130,
      "##©": 6131,
      "##²": 6132,
      "##ꬅ": 6133,
      "##໧": 6134,
      "##ᔐ": 6135,
      "##ɇ": 6136,
      "##🙂": 6137,
      "##♪": 6138,
      "##ҹ": 6139,
      "##ﻛ": 6140,
      "##ﹶ": 6141,
      "##ﺄ": 6142,
      "##ﻧ": 6143,
      "##ȼ": 6144,
      "##ਇ": 6145,
      "##ᴣ": 6146,
      "##࢏": 6147,
      "##ƽ": 6148,
      "##һ": 6149,
      "##ɳ": 6150,
      "##æ": 6151,
      "##񻭣": 6152,
      "##񻭵": 6153,
      "##ɣ": 6154,
      "##ͼ": 6155,
      "##ࡷ": 6156,
      "##ԣ": 6157,
      "##᎕": 6158,
      "##ﻌ": 6159,
      "##ﺒ": 6160,
      "##😍": 6161,
      "##ඩ": 6162,
      "##ම": 6163,
      "##ቒ": 6164,
      "##⤳": 6165,
      "##¯": 6166,
      "##ⶄ": 6167,
      "##ﻰ": 6168,
      "##ැ": 6169,
      "##ද": 6170,
      "##ප": 6171,
      "##ෙ": 6172,
      "##ර": 6173,
      "##ග": 6174,
      "##ට": 6175,
      "##►": 6176,
      "##኱": 6177,
      "##⺁": 6178,
      "##ξ": 6179,
      "##ς": 6180,
      "##ዺ": 6181,
      "##│": 6182,
      "##ቘ": 6183,
      "##῀": 6184,
      "##΂": 6185,
      "##ഡ": 6186,
      "##ჲ": 6187,
      "##ఖ": 6188,
      "##ඵ": 6189,
      "##ᚵ": 6190,
      "##؆": 6191,
      "##ᴗ": 6192,
      "##ф": 6193,
      "##⻯": 6194,
      "##ጟ": 6195,
      "##ছ": 6196,
      "##ড": 6197,
      "##ⶨ": 6198,
      "##✨": 6199,
      "##🌹": 6200,
      "##⭐": 6201,
      "##ख": 6202,
      "##ﻈ": 6203,
      "##ꬆ": 6204,
      "##ﺧ": 6205,
      "##ր": 6206,
      "##վ": 6207,
      "##ք": 6208,
      "##ը": 6209,
      "##տ": 6210,
      "##ղ": 6211,
      "##ծ": 6212,
      "##գ": 6213,
      "##オ": 6214,
      "##ン": 6215,
      "##ラ": 6216,
      "##イ": 6217,
      "##に": 6218,
      "##す": 6219,
      "##る": 6220,
      "##ハ": 6221,
      "##ー": 6222,
      "##ト": 6223,
      "##タ": 6224,
      "##ム": 6225,
      "##⻵": 6226,
      "##ﻓ": 6227,
      "##ﻪ": 6228,
      "##ۥ": 6229,
      "##¢": 6230,
      "##گ": 6231,
      "##ﺚ": 6232,
      "##ﺫ": 6233,
      "##ਰ": 6234,
      "##ﺟ": 6235,
      "##ε": 6236,
      "##জ": 6237,
      "##ﺔ": 6238,
      "##ፗ": 6239,
      "##ᣔ": 6240,
      "##ஒ": 6241,
      "##ដ": 6242,
      "##ி": 6243,
      "##ர": 6244,
      "##ை": 6245,
      "##வ": 6246,
      "##ல": 6247,
      "##ณ": 6248,
      "##ս": 6249,
      "##૙": 6250,
      "##ᦁ": 6251,
      "##ᏹ": 6252,
      "##ᴫ": 6253,
      "##˖": 6254,
      "##⁄": 6255,
      "##ৡ": 6256,
      "##଻": 6257,
      "##ᇃ": 6258,
      "##༞": 6259,
      "##𝖔": 6260,
      "##𝖓": 6261,
      "##𝖙": 6262,
      "##ﻳ": 6263,
      "##±": 6264,
      "##ܪ": 6265,
      "##ܡ": 6266,
      "##ܝ": 6267,
      "##ܐ": 6268,
      "##প": 6269,
      "##ﺷ": 6270,
      "##⺉": 6271,
      "##ᎄ": 6272,
      "##⺬": 6273,
      "##❣": 6274,
      "##ﺢ": 6275,
      "##¬": 6276,
      "##ා": 6277,
      "##﮸": 6278,
      "##ॎ": 6279,
      "##ڀ": 6280,
      "##ɔ": 6281,
      "##ᱴ": 6282,
      "##ᄭ": 6283,
      "##ᖖ": 6284,
      "##−": 6285,
      "##ꬎ": 6286,
      "##ի": 6287,
      "##ﻱ": 6288,
      "##ᮦ": 6289,
      "##ᆇ": 6290,
      "##᱖": 6291,
      "##ᐩ": 6292,
      "##῱": 6293,
      "##૔": 6294,
      "##᡼": 6295,
      "##ࡁ": 6296,
      "##ਵ": 6297,
      "##ᯀ": 6298,
      "##ଡ": 6299,
      "##¼": 6300,
      "##ﷻ": 6301,
      "##ז": 6302,
      "##ኈ": 6303,
      "##✈": 6304,
      "##׍": 6305,
      "##ᘄ": 6306,
      "##࿤": 6307,
      "##ᅣ": 6308,
      "##ᐂ": 6309,
      "##ⴤ": 6310,
      "##ԋ": 6311,
      "##ݫ": 6312,
      "##᪁": 6313,
      "##჈": 6314,
      "##࿥": 6315,
      "##ᶲ": 6316,
      "##ѿ": 6317,
      "##छ": 6318,
      "##⺄": 6319,
      "##ज": 6320,
      "##ѽ": 6321,
      "##ڗ": 6322,
      "##ᢝ": 6323,
      "##ጜ": 6324,
      "##🚚": 6325,
      "##ᜄ": 6326,
      "##ร": 6327,
      "##थ": 6328,
      "##ȥ": 6329,
      "##ޤ": 6330,
      "##ޡ": 6331,
      "##ݷ": 6332,
      "##󥿡": 6333,
      "##ᆼ": 6334,
      "##ᄀ": 6335,
      "##ᅮ": 6336,
      "##ጷ": 6337,
      "##ﷺ": 6338,
      "##ၾ": 6339,
      "##ᇅ": 6340,
      "##৭": 6341,
      "##ᩊ": 6342,
      "##٣": 6343,
      "##⹪": 6344,
      "##🇿": 6345,
      "##ʲ": 6346,
      "##ᧄ": 6347,
      "##ⴆ": 6348,
      "##ဣ": 6349,
      "##ॲ": 6350,
      "##ጚ": 6351,
      "##ន": 6352,
      "##ក": 6353,
      "##ꬋ": 6354,
      "##յ": 6355,
      "##২": 6356,
      "##˵": 6357,
      "##พ": 6358,
      "##✍": 6359,
      "##ᄇ": 6360,
      "##ᅴ": 6361,
      "##ᆵ": 6362,
      "##ᯗ": 6363,
      "##ต": 6364,
      "##ย": 6365,
      "##ɐ": 6366,
      "##ꬁ": 6367,
      "##ף": 6368,
      "##শ": 6369,
      "##𝐵": 6370,
      "##𝒞": 6371,
      "##𝒟": 6372,
      "##𝐸": 6373,
      "##𝐹": 6374,
      "##𝒢": 6375,
      "##𝐻": 6376,
      "##𝐼": 6377,
      "##𝒥": 6378,
      "##𝒦": 6379,
      "##𝐿": 6380,
      "##𝑀": 6381,
      "##𝒩": 6382,
      "##𝒪": 6383,
      "##𝒫": 6384,
      "##𝒬": 6385,
      "##𝑅": 6386,
      "##𝒮": 6387,
      "##𝒯": 6388,
      "##𝒰": 6389,
      "##𝒱": 6390,
      "##𝒲": 6391,
      "##𝒳": 6392,
      "##𝒴": 6393,
      "##𝒵": 6394,
      "##ﻝ": 6395,
      "##ڤ": 6396,
      "##ᙥ": 6397,
      "##἗": 6398,
      "##ᖄ": 6399,
      "##ᛮ": 6400,
      "##マ": 6401,
      "##ニ": 6402,
      "##ヒ": 6403,
      "##ュ": 6404,
      "##レ": 6405,
      "##ﺲ": 6406,
      "##ম": 6407,
      "##ዾ": 6408,
      "##ﺁ": 6409,
      "##ﺗ": 6410,
      "##ᅰ": 6411,
      "##ᆺ": 6412,
      "##❖": 6413,
      "##ﻑ": 6414,
      "##ࡴ": 6415,
      "##˚": 6416,
      "##⺧": 6417,
      "##ค": 6418,
      "##💚": 6419,
      "##💛": 6420,
      "##❤": 6421,
      "##༠": 6422,
      "##ᠤ": 6423,
      "##ƿ": 6424,
      "##ധ": 6425,
      "##ࢊ": 6426,
      "##ᒴ": 6427,
      "##χ": 6428,
      "##π": 6429,
      "##ъ": 6430,
      "##ﺜ": 6431,
      "##ﺛ": 6432,
      "##ﻞ": 6433,
      "##ﻷ": 6434,
      "##ʇ": 6435,
      "##ɟ": 6436,
      "##θ": 6437,
      "##💀": 6438,
      "##⺗": 6439,
      "##भ": 6440,
      "##◙": 6441,
      "##○": 6442,
      "##ß": 6443,
      "##ᅳ": 6444,
      "##ᆬ": 6445,
      "##͵": 6446,
      "##ϡ": 6447,
      "##δ": 6448,
      "##ᄃ": 6449,
      "##ᅡ": 6450,
      "##ᆯ": 6451,
      "##๻": 6452,
      "##ʟ": 6453,
      "##ᔰ": 6454,
      "##ഓ": 6455,
      "##ᚣ": 6456,
      "##׭": 6457,
      "##⺵": 6458,
      "##∫": 6459,
      "##ƕ": 6460,
      "##ᆪ": 6461,
      "##ʡ": 6462,
      "##ﺴ": 6463,
      "##క": 6464,
      "##ᢟ": 6465,
      "##ʋ": 6466,
      "##ⷛ": 6467,
      "##ත": 6468,
      "##ۇ": 6469,
      "##ە": 6470,
      "##ﻡ": 6471,
      "##࿳": 6472,
      "##ᠠ": 6473,
      "##ด": 6474,
      "##ⷋ": 6475,
      "##ᅻ": 6476,
      "##ར": 6477,
      "##➤": 6478,
      "##ⶉ": 6479,
      "##ॉ": 6480,
      "##🇨": 6481,
      "##ጞ": 6482,
      "##ͳ": 6483,
      "##ˮ": 6484,
      "##װ": 6485,
      "##ǳ": 6486,
      "##⾳": 6487,
      "##ⶒ": 6488,
      "##🕎": 6489,
      "##ల": 6490,
      "##ు": 6491,
      "##గ": 6492,
      "##򤤤": 6493,
      "##ꮛ": 6494,
      "##մ": 6495,
      "##て": 6496,
      "##🇸": 6497,
      "##🇳": 6498,
      "##ᯂ": 6499,
      "##๙": 6500,
      "##ᇖ": 6501,
      "##ߣ": 6502,
      "##᫼": 6503,
      "##ᕤ": 6504,
      "##ᝯ": 6505,
      "##ᨦ": 6506,
      "##௼": 6507,
      "##⹋": 6508,
      "##﮽": 6509,
      "##⺢": 6510,
      "##ᅥ": 6511,
      "##ป": 6512,
      "##ห": 6513,
      "##ม": 6514,
      "##ⲛ": 6515,
      "##ⲟ": 6516,
      "##ධ": 6517,
      "##º": 6518,
      "##ᐜ": 6519,
      "##🏽": 6520,
      "##ꬖ": 6521,
      "##খ": 6522,
      "##🍃": 6523,
      "##🍂": 6524,
      "##ᆨ": 6525,
      "##බ": 6526,
      "##˾": 6527,
      "##ۺ": 6528,
      "##ʹ": 6529,
      "##ȣ": 6530,
      "##ߤ": 6531,
      "##ᅶ": 6532,
      "##ව": 6533,
      "##ᅯ": 6534,
      "##ᆻ": 6535,
      "##񤷤": 6536,
      "##ɡ": 6537,
      "##☞": 6538,
      "##⺖": 6539,
      "##˻": 6540,
      "##ɤ": 6541,
      "##ȡ": 6542,
      "##௱": 6543,
      "##ᴚ": 6544,
      "##ײ": 6545,
      "##ಕ": 6546,
      "##ٻ": 6547,
      "##ҝ": 6548,
      "##ѕ": 6549,
      "##і": 6550,
      "##ﺿ": 6551,
      "##ᵋ": 6552,
      "##आ": 6553,
      "##៸": 6554,
      "##ᶁ": 6555,
      "##ʈ": 6556,
      "##ᶃ": 6557,
      "##⡣": 6558,
      "##򵡤": 6559,
      "##ߡ": 6560,
      "##٥": 6561,
      "##🇮": 6562,
      "##ᄉ": 6563,
      "##ᅬ": 6564,
      "##૥": 6565,
      "##ϻ": 6566,
      "##⤢": 6567,
      "##򤷤": 6568,
      "##ฒ": 6569,
      "##ꮮ": 6570,
      "##ﻻ": 6571,
      "##ﻀ": 6572,
      "##႘": 6573,
      "##๼": 6574,
      "##୮": 6575,
      "##᮹": 6576,
      "##቗": 6577,
      "##ණ": 6578,
      "##ไ": 6579,
      "##ฟ": 6580,
      "##ﺐ": 6581,
      "##³": 6582,
      "##⃣": 6583,
      "##เ": 6584,
      "##ƴ": 6585,
      "##˹": 6586,
      "##ধ": 6587,
      "##ං": 6588,
      "##හ": 6589,
      "##ල": 6590,
      "##🇦": 6591,
      "##●": 6592,
      "##փ": 6593,
      "##թ": 6594,
      "##ই": 6595,
      "##ᚽ": 6596,
      "##ӻ": 6597,
      "##ౝ": 6598,
      "##᧖": 6599,
      "##ᐸ": 6600,
      "##ﻄ": 6601,
      "##⻝": 6602,
      "##😱": 6603,
      "##ˆ": 6604,
      "##ﺓ": 6605,
      "##फ": 6606,
      "##٧": 6607,
      "##ﻙ": 6608,
      "##ফ": 6609,
      "##ভ": 6610,
      "##≫": 6611,
      "##★": 6612,
      "##ᗃ": 6613,
      "##օ": 6614,
      "##ԭ": 6615,
      "##ӡ": 6616,
      "##ʱ": 6617,
      "##ڵ": 6618,
      "##ង": 6619,
      "##ទ": 6620,
      "##ព": 6621,
      "##󥵡": 6622,
      "##ɥ": 6623,
      "##ळ": 6624,
      "##ፘ": 6625,
      "##᧱": 6626,
      "##๩": 6627,
      "##ன": 6628,
      "##𝕥": 6629,
      "##𝕣": 6630,
      "##𝕦": 6631,
      "##𝕔": 6632,
      "##𝕜": 6633,
      "##໼": 6634,
      "##୐": 6635,
      "##ᇒ": 6636,
      "##ꮠ": 6637,
      "##຺": 6638,
      "##∂": 6639,
      "##׫": 6640,
      "##ຩ": 6641,
      "##ⴐ": 6642,
      "##᫾": 6643,
      "##ᢪ": 6644,
      "##൉": 6645,
      "##᳾": 6646,
      "##ð": 6647,
      "##᱐": 6648,
      "##ᇸ": 6649,
      "##٩": 6650,
      "##ϫ": 6651,
      "##ѥ": 6652,
      "##ႈ": 6653,
      "##პ": 6654,
      "##ฌ": 6655,
      "##૚": 6656,
      "##ʥ": 6657,
      "##ȿ": 6658,
      "##϶": 6659,
      "##ᵌ": 6660,
      "##ʆ": 6661,
      "##޻": 6662,
      "##ዹ": 6663,
      "##∙": 6664,
      "##ᔏ": 6665,
      "##င": 6666,
      "##ꮁ": 6667,
      "##ƌ": 6668,
      "##ⴠ": 6669,
      "##ᑅ": 6670,
      "##ԫ": 6671,
      "##˿": 6672,
      "##ᄥ": 6673,
      "##ͽ": 6674,
      "##ې": 6675,
      "##ﯹ": 6676,
      "##ᄤ": 6677,
      "##𐌌": 6678,
      "##🔥": 6679,
      "##た": 6680,
      "##め": 6681,
      "##₂": 6682,
      "##ࢢ": 6683,
      "##ࠤ": 6684,
      "##ᯥ": 6685,
      "##ఓ": 6686,
      "##ᓄ": 6687,
      "##ᖔ": 6688,
      "##ක": 6689,
      "##૟": 6690,
      "##ᅒ": 6691,
      "##ଋ": 6692,
      "##က": 6693,
      "##ေ": 6694,
      "##ာ": 6695,
      "##ʿ": 6696,
      "##ⵤ": 6697,
      "##դ": 6698,
      "##⹷": 6699,
      "##😂": 6700,
      "##😁": 6701,
      "##ﺈ": 6702,
      "##⺇": 6703,
      "##ᖨ": 6704,
      "##ᯐ": 6705,
      "##ᱼ": 6706,
      "##ᣋ": 6707,
      "##ࠏ": 6708,
      "##љ": 6709,
      "##ᰍ": 6710,
      "##ᴍ": 6711,
      "##᤭": 6712,
      "##ᇾ": 6713,
      "##ჹ": 6714,
      "##œ": 6715,
      "##ᔃ": 6716,
      "##ᓏ": 6717,
      "##ᓬ": 6718,
      "##ᔝ": 6719,
      "##ਛ": 6720,
      "##ඳ": 6721,
      "##✧": 6722,
      "##™": 6723,
      "##ﻯ": 6724,
      "##ᕆ": 6725,
      "##ཚ": 6726,
      "##ು": 6727,
      "##୽": 6728,
      "##ᖁ": 6729,
      "##ᆕ": 6730,
      "##ល": 6731,
      "##҉": 6732,
      "##ࢰ": 6733,
      "##ᓽ": 6734,
      "##ᝪ": 6735,
      "##˪": 6736,
      "##ᆰ": 6737,
      "##੤": 6738,
      "##ⴡ": 6739,
      "##௻": 6740,
      "##💸": 6741,
      "##ⶩ": 6742,
      "##ə": 6743,
      "##ﺇ": 6744,
      "##𒅗": 6745,
      "##𒄀": 6746,
      "##𒈾": 6747,
      "##ܫ": 6748,
      "##ឿ": 6749,
      "##ᭋ": 6750,
      "##ʬ": 6751,
      "##ใ": 6752,
      "##γ": 6753,
      "##ѵ": 6754,
      "##ᤫ": 6755,
      "##ᢾ": 6756,
      "##ᢗ": 6757,
      "##■": 6758,
      "##ᇻ": 6759,
      "##ᴈ": 6760,
      "##ﱠ": 6761,
      "##ๆ": 6762,
      "##🌙": 6763,
      "##ⶪ": 6764,
      "##᪗": 6765,
      "##ᤱ": 6766,
      "##˰": 6767,
      "##👆": 6768,
      "##򿪽": 6769,
      "##🇫": 6770,
      "##ҫ": 6771,
      "##շ": 6772,
      "##԰": 6773,
      "##⤷": 6774,
      "##ͻ": 6775,
      "##ᆸ": 6776,
      "##उ": 6777,
      "##ᦌ": 6778,
      "##ᕊ": 6779,
      "##ೕ": 6780,
      "##ᢵ": 6781,
      "##🙏": 6782,
      "##🏼": 6783,
      "##ᄈ": 6784,
      "##ᆹ": 6785,
      "##⹜": 6786,
      "##ϥ": 6787,
      "##ܤ": 6788,
      "##ȸ": 6789,
      "##💯": 6790,
      "##ᆷ": 6791,
      "##њ": 6792,
      "##˽": 6793,
      "##ࣜ": 6794,
      "##ธ": 6795,
      "##ᰨ": 6796,
      "##૒": 6797,
      "##ᮧ": 6798,
      "##ѫ": 6799,
      "##ᬭ": 6800,
      "##ߜ": 6801,
      "##จ": 6802,
      "##ญ": 6803,
      "##ﹸ": 6804,
      "##ﺻ": 6805,
      "##ﻊ": 6806,
      "##ϸ": 6807,
      "##ͱ": 6808,
      "##ﺞ": 6809,
      "##⹘": 6810,
      "##஬": 6811,
      "##झ": 6812,
      "##と": 6813,
      "##の": 6814,
      "##こ": 6815,
      "##ૐ": 6816,
      "##൰": 6817,
      "##ӿ": 6818,
      "##ႚ": 6819,
      "##ے": 6820,
      "##⹈": 6821,
      "##ᶈ": 6822,
      "##ᤅ": 6823,
      "##ɛ": 6824,
      "##੕": 6825,
      "##ⷓ": 6826,
      "##ፚ": 6827,
      "##ɶ": 6828,
      "##ݛ": 6829,
      "##ᴺ": 6830,
      "##ᗜ": 6831,
      "##💕": 6832,
      "##ⵆ": 6833,
      "##🇧": 6834,
      "##៭": 6835,
      "##ψ": 6836,
      "##ස": 6837,
      "##🏻": 6838,
      "##ণ": 6839,
      "##᜙": 6840,
      "##ⴧ": 6841,
      "##ᅖ": 6842,
      "##ଜ": 6843,
      "##か": 6844,
      "##۲": 6845,
      "##ⶥ": 6846,
      "##ᶸ": 6847,
      "##ᒏ": 6848,
      "##ٿ": 6849,
      "##ⷎ": 6850,
      "##ᜥ": 6851,
      "##๝": 6852,
      "##ᢅ": 6853,
      "##ᓻ": 6854,
      "##⺨": 6855,
      "##᭹": 6856,
      "##᜖": 6857,
      "##֎": 6858,
      "##΍": 6859,
      "##ᯢ": 6860,
      "##ᑂ": 6861,
      "##ส": 6862,
      "##ʊ": 6863,
      "##᛽": 6864,
      "##ᑠ": 6865,
      "##ꮺ": 6866,
      "##ၖ": 6867,
      "##ౙ": 6868,
      "##⻭": 6869,
      "##⺯": 6870,
      "##ﺃ": 6871,
      "##ᒯ": 6872,
      "##ឝ": 6873,
      "##ᓾ": 6874,
      "##ᣪ": 6875,
      "##౺": 6876,
      "##ᰀ": 6877,
      "##ᩁ": 6878,
      "##ۿ": 6879,
      "##ౚ": 6880,
      "##ᆲ": 6881,
      "##ผ": 6882,
      "##૵": 6883,
      "##խ": 6884,
      "##ᛃ": 6885,
      "##ᚶ": 6886,
      "##💞": 6887,
      "##պ": 6888,
      "##μ": 6889,
      "##ԥ": 6890,
      "##ᡢ": 6891,
      "##ꮍ": 6892,
      "##ӈ": 6893,
      "##お": 6894,
      "##є": 6895,
      "##ﻖ": 6896,
      "##ƍ": 6897,
      "##ᒑ": 6898,
      "##ߋ": 6899,
      "##ɗ": 6900,
      "##ϝ": 6901,
      "##ឱ": 6902,
      "##ᜋ": 6903,
      "##ᗓ": 6904,
      "##ᐃ": 6905,
      "##ნ": 6906,
      "##ળ": 6907,
      "##఑": 6908,
      "##ᙔ": 6909,
      "##ࡘ": 6910,
      "##ಹ": 6911,
      "##═": 6912,
      "##ⲧ": 6913,
      "##ⲉ": 6914,
      "##ࡻ": 6915,
      "##ﺂ": 6916,
      "##ﻃ": 6917,
      "##⤿": 6918,
      "##ʣ": 6919,
      "##򲼤": 6920,
      "##ɬ": 6921,
      "##れ": 6922,
      "##ᒎ": 6923,
      "##ᴏ": 6924,
      "##ɴ": 6925,
      "##ᴛ": 6926,
      "##ꜱ": 6927,
      "##ꜰ": 6928,
      "##ⶅ": 6929,
      "##ᢋ": 6930,
      "##፿": 6931,
      "##ⶽ": 6932,
      "##🌻": 6933,
      "##🌼": 6934,
      "##๿": 6935,
      "##ᨒ": 6936,
      "##ᨻ": 6937,
      "##ˍ": 6938,
      "##ე": 6939,
      "##ბ": 6940,
      "##⹥": 6941,
      "##⺸": 6942,
      "##ᰐ": 6943,
      "##᭔": 6944,
      "##ᄁ": 6945,
      "##ᅤ": 6946,
      "##♣": 6947,
      "##˥": 6948,
      "##ⲱ": 6949,
      "##ⲩ": 6950,
      "##ท": 6951,
      "##ศ": 6952,
      "##⺀": 6953,
      "##ⷙ": 6954,
      "##⺣": 6955,
      "##࿈": 6956,
      "##👈": 6957,
      "##ࠈ": 6958,
      "##👅": 6959,
      "##❄": 6960,
      "##򤭤": 6961,
      "##ʷ": 6962,
      "##ꡢ": 6963,
      "##ɸ": 6964,
      "##ҵ": 6965,
      "##✆": 6966,
      "##➐": 6967,
      "##➏": 6968,
      "##➒": 6969,
      "##ᚠ": 6970,
      "##ﹾ": 6971,
      "##ꤤ": 6972,
      "##∷": 6973,
      "##⹚": 6974,
      "##᮶": 6975,
      "##ᖯ": 6976,
      "##ᖱ": 6977,
      "##⺍": 6978,
      "##ہ": 6979,
      "##￼": 6980,
      "##⟶": 6981,
      "##ƨ": 6982,
      "##ᔁ": 6983,
      "##᭽": 6984,
      "##ૼ": 6985,
      "##࿀": 6986,
      "##ு": 6987,
      "##ᠳ": 6988,
      "##ᜯ": 6989,
      "##࢔": 6990,
      "##ܣ": 6991,
      "##ᛲ": 6992,
      "##ၮ": 6993,
      "##ឈ": 6994,
      "##ɋ": 6995,
      "##ӄ": 6996,
      "##ᔈ": 6997,
      "##ཤ": 6998,
      "##ᶑ": 6999,
      "##ȴ": 7000,
      "##လ": 7001,
      "##😄": 7002,
      "##ƚ": 7003,
      "##񤤤": 7004,
      "##ᵅ": 7005,
      "##ݵ": 7006,
      "##ᜅ": 7007,
      "##💥": 7008,
      "##─": 7009,
      "##⺭": 7010,
      "##ȷ": 7011,
      "##ҷ": 7012,
      "##ϵ": 7013,
      "##ƣ": 7014,
      "##޵": 7015,
      "##ռ": 7016,
      "##ओ": 7017,
      "##ჾ": 7018,
      "##ɱ": 7019,
      "##ᨧ": 7020,
      "##ᖳ": 7021,
      "##ɒ": 7022,
      "##ⴥ": 7023,
      "##ʗ": 7024,
      "##᲼": 7025,
      "##ⶫ": 7026,
      "##แ": 7027,
      "##⻉": 7028,
      "##ໃ": 7029,
      "##᫱": 7030,
      "##ᰊ": 7031,
      "##ગ": 7032,
      "##ƅ": 7033,
      "##ഌ": 7034,
      "##৪": 7035,
      "##ჵ": 7036,
      "##ᐥ": 7037,
      "##は": 7038,
      "##ア": 7039,
      "##ロ": 7040,
      "##ス": 7041,
      "##ホ": 7042,
      "##ツ": 7043,
      "##๒": 7044,
      "##າ": 7045,
      "##ວ": 7046,
      "##ြ": 7047,
      "##శ": 7048,
      "##ပ": 7049,
      "##ᝁ": 7050,
      "##ﺯ": 7051,
      "##💔": 7052,
      "##⺺": 7053,
      "##√": 7054,
      "##չ": 7055,
      "##ᄗ": 7056,
      "##඗": 7057,
      "##თ": 7058,
      "##ᔘ": 7059,
      "##ᥠ": 7060,
      "##დ": 7061,
      "##ʺ": 7062,
      "##⺻": 7063,
      "##ऊ": 7064,
      "##ⲥ": 7065,
      "##ʔ": 7066,
      "##ॠ": 7067,
      "##ജ": 7068,
      "##ऎ": 7069,
      "##ଫ": 7070,
      "##ƙ": 7071,
      "##⻳": 7072,
      "##ໄ": 7073,
      "##კ": 7074,
      "##ⴒ": 7075,
      "##ࢧ": 7076,
      "##ᵠ": 7077,
      "##ݶ": 7078,
      "##ݼ": 7079,
      "##ᛶ": 7080,
      "##ᄵ": 7081,
      "##ᡦ": 7082,
      "##ܙ": 7083,
      "##ᮞ": 7084,
      "##ⴂ": 7085,
      "##ᄙ": 7086,
      "##ຯ": 7087,
      "##ྊ": 7088,
      "##ᗚ": 7089,
      "##௜": 7090,
      "##ᮼ": 7091,
      "##ᛊ": 7092,
      "##ࣀ": 7093,
      "##♀": 7094,
      "##ⶎ": 7095,
      "##シ": 7096,
      "##ネ": 7097,
      "##を": 7098,
      "##⻫": 7099,
      "##ࢀ": 7100,
      "##⤤": 7101,
      "##🇱": 7102,
      "##🤲": 7103,
      "##≥": 7104,
      "##ʞ": 7105,
      "##∶": 7106,
      "##ջ": 7107,
      "##ѧ": 7108,
      "##ථ": 7109,
      "##ℱ": 7110,
      "##᏶": 7111,
      "##ᮉ": 7112,
      "##ᖴ": 7113,
      "##ၺ": 7114,
      "##ᴕ": 7115,
      "##ॾ": 7116,
      "##🔘": 7117,
      "##ᒐ": 7118,
      "##ᐞ": 7119,
      "##ൟ": 7120,
      "##ᗈ": 7121,
      "##ϰ": 7122,
      "##ʽ": 7123,
      "##ϣ": 7124,
      "##ʵ": 7125,
      "##⹒": 7126,
      "##᱌": 7127,
      "##ᚬ": 7128,
      "##঒": 7129,
      "##よ": 7130,
      "##う": 7131,
      "##⁴": 7132,
      "##󥿥": 7133,
      "##ᜨ": 7134,
      "##ᅝ": 7135,
      "##ஐ": 7136,
      "##ჯ": 7137,
      "##ᏺ": 7138,
      "##ᡖ": 7139,
      "##ᘐ": 7140,
      "##ᕾ": 7141,
      "##ᱨ": 7142,
      "##ʌ": 7143,
      "##ᛅ": 7144,
      "##ವ": 7145,
      "##ɺ": 7146,
      "##೫": 7147,
      "##౦": 7148,
      "##ᣘ": 7149,
      "##ᱳ": 7150,
      "##♂": 7151,
      "##ک": 7152,
      "##⺔": 7153,
      "##❡": 7154,
      "##⺊": 7155,
      "##ϲ": 7156,
      "##᲍": 7157,
      "##❞": 7158,
      "##⺙": 7159,
      "##➊": 7160,
      "##հ": 7161,
      "##ᥳ": 7162,
      "##ᬅ": 7163,
      "##ᬵ": 7164,
      "##ᘇ": 7165,
      "##ᒙ": 7166,
      "##ᢨ": 7167,
      "##େ": 7168,
      "##ᱵ": 7169,
      "##๡": 7170,
      "##ᖰ": 7171,
      "##ᆽ": 7172,
      "##ᇭ": 7173,
      "##៮": 7174,
      "##࣢": 7175,
      "##᫵": 7176,
      "##቉": 7177,
      "##᝝": 7178,
      "##ᗿ": 7179,
      "##😆": 7180,
      "##🇴": 7181,
      "##🇾": 7182,
      "##ⷑ": 7183,
      "##ළ": 7184,
      "##ݣ": 7185,
      "##ߵ": 7186,
      "##ဒ": 7187,
      "##ᥟ": 7188,
      "##ᝣ": 7189,
      "##ᠪ": 7190,
      "##ʨ": 7191,
      "##░": 7192,
      "##▒": 7193,
      "##▓": 7194,
      "##█": 7195,
      "##ჟ": 7196,
      "##᧑": 7197,
      "##ᐍ": 7198,
      "##⻧": 7199,
      "##⹨": 7200,
      "##▼": 7201,
      "##⹇": 7202,
      "##😀": 7203,
      "##ݡ": 7204,
      "##ƶ": 7205,
      "##ꡣ": 7206,
      "##⺃": 7207,
      "##👏": 7208,
      "##⹐": 7209,
      "##᫁": 7210,
      "##႑": 7211,
      "##ਈ": 7212,
      "##ﻏ": 7213,
      "##ﻂ": 7214,
      "##ݨ": 7215,
      "##ѯ": 7216,
      "##ᛔ": 7217,
      "##৾": 7218,
      "##඀": 7219,
      "##ࡨ": 7220,
      "##୶": 7221,
      "##ᱠ": 7222,
      "##ຝ": 7223,
      "##᤿": 7224,
      "##ᘗ": 7225,
      "##ʩ": 7226,
      "##૘": 7227,
      "##ᔛ": 7228,
      "##ਥ": 7229,
      "##ᒓ": 7230,
      "##঍": 7231,
      "##󥰥": 7232,
      "##ﺱ": 7233,
      "##ᢿ": 7234,
      "##ھ": 7235,
      "##ᨍ": 7236,
      "##ᧂ": 7237,
      "##ճ": 7238,
      "##ࢩ": 7239,
      "##ɝ": 7240,
      "##ዄ": 7241,
      "##ﺵ": 7242,
      "##ெ": 7243,
      "##ா": 7244,
      "##ள": 7245,
      "##˲": 7246,
      "##ѹ": 7247,
      "##˷": 7248,
      "##ѣ": 7249,
      "##ҳ": 7250,
      "##ڳ": 7251,
      "##ժ": 7252,
      "##ͷ": 7253,
      "##ӽ": 7254,
      "##ޱ": 7255,
      "##޳": 7256,
      "##޲": 7257,
      "##޶": 7258,
      "##޾": 7259,
      "##޽": 7260,
      "##߄": 7261,
      "##ᇰ": 7262,
      "##ځ": 7263,
      "##ᒡ": 7264,
      "##ᑬ": 7265,
      "##᭗": 7266,
      "##ᑖ": 7267,
      "##ࣘ": 7268,
      "##⻄": 7269,
      "##⹅": 7270,
      "##᤯": 7271,
      "##󡣤": 7272,
      "##ꤹ": 7273,
      "##ⓘ": 7274,
      "##𝕖": 7275,
      "##ｒ": 7276,
      "##ｄ": 7277,
      "##🗣": 7278,
      "##ା": 7279,
      "##ᩄ": 7280,
      "##ზ": 7281,
      "##࣋": 7282,
      "##ᒠ": 7283,
      "##ⷝ": 7284,
      "##৛": 7285,
      "##ᕚ": 7286,
      "##⁹": 7287,
      "##ᓈ": 7288,
      "##ᑕ": 7289,
      "##ܧ": 7290,
      "##஑": 7291,
      "##ʍ": 7292,
      "##ஹ": 7293,
      "##ᘬ": 7294,
      "##ᒇ": 7295,
      "##ᐵ": 7296,
      "##ჿ": 7297,
      "##׊": 7298,
      "##ⷔ": 7299,
      "##ษ": 7300,
      "##𝔰": 7301,
      "##↔": 7302,
      "##ซ": 7303,
      "##⹶": 7304,
      "##⺠": 7305,
      "##𝔀": 7306,
      "##𝓲": 7307,
      "##𝓽": 7308,
      "##𝓮": 7309,
      "##𝓻": 7310,
      "##𝓾": 7311,
      "##𝓼": 7312,
      "##𝓿": 7313,
      "##ਤ": 7314,
      "##ࡔ": 7315,
      "##ၣ": 7316,
      "##ᜍ": 7317,
      "##҈": 7318,
      "##९": 7319,
      "##ŧ": 7320,
      "##џ": 7321,
      "##ܦ": 7322,
      "##ჱ": 7323,
      "##᜿": 7324,
      "##౷": 7325,
      "##௷": 7326,
      "##ᰡ": 7327,
      "##੎": 7328,
      "##ᇜ": 7329,
      "##އ": 7330,
      "##⤦": 7331,
      "##ढ": 7332,
      "##ᆭ": 7333,
      "##ҥ": 7334,
      "##ꥹ": 7335,
      "##β": 7336,
      "##ﻕ": 7337,
      "##➖": 7338,
      "##⹹": 7339,
      "##⡦": 7340,
      "##ෆ": 7341,
      "##🎶": 7342,
      "##โ": 7343,
      "##ꮃ": 7344,
      "##ᱜ": 7345,
      "##୿": 7346,
      "##ჽ": 7347,
      "##ѻ": 7348,
      "##᫔": 7349,
      "##ߎ": 7350,
      "##ᖽ": 7351,
      "##૊": 7352,
      "##ᗍ": 7353,
      "##ŋ": 7354,
      "##ʢ": 7355,
      "##െ": 7356,
      "##ാ": 7357,
      "##᯲": 7358,
      "##ܯ": 7359,
      "##೓": 7360,
      "##੫": 7361,
      "##ݓ": 7362,
      "##᚝": 7363,
      "##ᰞ": 7364,
      "##ફ": 7365,
      "##✞": 7366,
      "##᫅": 7367,
      "##˄": 7368,
      "##ᔑ": 7369,
      "##᣷": 7370,
      "##໶": 7371,
      "##᝴": 7372,
      "##᥊": 7373,
      "##ᬱ": 7374,
      "##っ": 7375,
      "##も": 7376,
      "##⻷": 7377,
      "##リ": 7378,
      "##せ": 7379,
      "##サ": 7380,
      "##ђ": 7381,
      "##ᄆ": 7382,
      "##ᅵ": 7383,
      "##ᄋ": 7384,
      "##ᄒ": 7385,
      "##ᅪ": 7386,
      "##ᛡ": 7387,
      "##ᔵ": 7388,
      "##ϼ": 7389,
      "##ӏ": 7390,
      "##ʙ": 7391,
      "##ᴄ": 7392,
      "##ᴅ": 7393,
      "##ᴇ": 7394,
      "##ғ": 7395,
      "##ɢ": 7396,
      "##ʜ": 7397,
      "##ɪ": 7398,
      "##ᴊ": 7399,
      "##ᴋ": 7400,
      "##ᴘ": 7401,
      "##ʀ": 7402,
      "##ᴜ": 7403,
      "##ᴠ": 7404,
      "##ᴡ": 7405,
      "##ʏ": 7406,
      "##ᴢ": 7407,
      "##ፙ": 7408,
      "##👌": 7409,
      "##ਖ": 7410,
      "##ਿ": 7411,
      "##ਆ": 7412,
      "##ﺅ": 7413,
      "##ᖎ": 7414,
      "##ᵥ": 7415,
      "##෎": 7416,
      "##ѱ": 7417,
      "##⻩": 7418,
      "##▂": 7419,
      "##ణ": 7420,
      "##࿇": 7421,
      "##ᚕ": 7422,
      "##ٹ": 7423,
      "##ᵫ": 7424,
      "##ٷ": 7425,
      "##෤": 7426,
      "##⺳": 7427,
      "##ៅ": 7428,
      "##ᤘ": 7429,
      "##ᆓ": 7430,
      "##ᣓ": 7431,
      "##ᢏ": 7432,
      "##♨": 7433,
      "##ؠ": 7434,
      "##ᚉ": 7435,
      "##᦬": 7436,
      "##˸": 7437,
      "##ෟ": 7438,
      "##᳷": 7439,
      "##ⷐ": 7440,
      "##౬": 7441,
      "##ﻇ": 7442,
      "##ݤ": 7443,
      "##উ": 7444,
      "##͸": 7445,
      "##ﰲ": 7446,
      "##󣬴": 7447,
      "##ڻ": 7448,
      "##ഐ": 7449,
      "##ञ": 7450,
      "##ᔋ": 7451,
      "##ຐ": 7452,
      "##ᩮ": 7453,
      "##˜": 7454,
      "##⺞": 7455,
      "##⹊": 7456,
      "##ᠲ": 7457,
      "##ࠨ": 7458,
      "##ᅀ": 7459,
      "##򸫤": 7460,
      "##ﻉ": 7461,
      "##ﺡ": 7462,
      "##ݕ": 7463,
      "##ˁ": 7464,
      "##ؾ": 7465,
      "##┇": 7466,
      "##ڼ": 7467,
      "##է": 7468,
      "##ቚ": 7469,
      "##𝓸": 7470,
      "##𝓷": 7471,
      "##𝓯": 7472,
      "##⡢": 7473,
      "##⹆": 7474,
      "##ᙩ": 7475,
      "##ࢥ": 7476,
      "##ᲊ": 7477,
      "##ฉ": 7478,
      "##⻆": 7479,
      "##ﺺ": 7480,
      "##ᙄ": 7481,
      "##ᤴ": 7482,
      "##ᵐ": 7483,
      "##ᢌ": 7484,
      "##ຖ": 7485,
      "##ࠔ": 7486,
      "##ᘒ": 7487,
      "##ң": 7488,
      "##⹕": 7489,
      "##ဥ": 7490,
      "##೛": 7491,
      "##⺪": 7492,
      "##ʯ": 7493,
      "##ƭ": 7494,
      "##ル": 7495,
      "##ᅲ": 7496,
      "##ᇂ": 7497,
      "##ᆴ": 7498,
      "##׷": 7499,
      "##ɂ": 7500,
      "##🔮": 7501,
      "##႕": 7502,
      "##ᣭ": 7503,
      "##ᨀ": 7504,
      "##ᧀ": 7505,
      "##ᕼ": 7506,
      "##৿": 7507,
      "##ᆎ": 7508,
      "##߼": 7509,
      "##🅱": 7510,
      "##🅲": 7511,
      "##🅳": 7512,
      "##🅴": 7513,
      "##🅵": 7514,
      "##🅶": 7515,
      "##🅷": 7516,
      "##🅸": 7517,
      "##🅹": 7518,
      "##🅺": 7519,
      "##🅻": 7520,
      "##🅼": 7521,
      "##🅽": 7522,
      "##🅾": 7523,
      "##🅿": 7524,
      "##🆀": 7525,
      "##🆁": 7526,
      "##🆂": 7527,
      "##🆃": 7528,
      "##🆄": 7529,
      "##🆅": 7530,
      "##🆆": 7531,
      "##🆇": 7532,
      "##🆈": 7533,
      "##🆉": 7534,
      "##▪": 7535,
      "##ი": 7536,
      "##😘": 7537,
      "##૪": 7538,
      "##஁": 7539,
      "##୊": 7540,
      "##ᚻ": 7541,
      "##ᵴ": 7542,
      "##ෑ": 7543,
      "##ﺽ": 7544,
      "##⹮": 7545,
      "##ⶁ": 7546,
      "##ᘎ": 7547,
      "##౲": 7548,
      "##ᮿ": 7549,
      "##ᡚ": 7550,
      "##ࠐ": 7551,
      "##ܨ": 7552,
      "##࿾": 7553,
      "##ట": 7554,
      "##ಽ": 7555,
      "##঩": 7556,
      "##ᖒ": 7557,
      "##ǌ": 7558,
      "##᫬": 7559,
      "##᥼": 7560,
      "##ˉ": 7561,
      "##⺚": 7562,
      "##🇯": 7563,
      "##ࣂ": 7564,
      "##ཎ": 7565,
      "##⺈": 7566,
      "##⹦": 7567,
      "##⻞": 7568,
      "##フ": 7569,
      "##ォ": 7570,
      "##ࡢ": 7571,
      "##˭": 7572,
      "##໒": 7573,
      "##⻀": 7574,
      "##ᒰ": 7575,
      "##┐": 7576,
      "##኏": 7577,
      "##♫": 7578,
      "##💰": 7579,
      "##ᢻ": 7580,
      "##ᓧ": 7581,
      "##ꮅ": 7582,
      "##ޒ": 7583,
      "##◊": 7584,
      "##ඝ": 7585,
      "##ｏ": 7586,
      "##ｎ": 7587,
      "##ｔ": 7588,
      "##ｓ": 7589,
      "##ｆ": 7590,
      "##き": 7591,
      "##ま": 7592,
      "##⺼": 7593,
      "##ƻ": 7594,
      "##ᤷ": 7595,
      "##ՠ": 7596,
      "##ᝇ": 7597,
      "##ࠇ": 7598,
      "##ޕ": 7599,
      "##᠝": 7600,
      "##࣠": 7601,
      "##ⷖ": 7602,
      "##🥀": 7603,
      "##ა": 7604,
      "##მ": 7605,
      "##ო": 7606,
      "##ტ": 7607,
      "##ვ": 7608,
      "##რ": 7609,
      "##௏": 7610,
      "##೮": 7611,
      "##᡺": 7612,
      "##ꤷ": 7613,
      "##ᆌ": 7614,
      "##ᣌ": 7615,
      "##ᘲ": 7616,
      "##᣽": 7617,
      "##ｐ": 7618,
      "##ａ": 7619,
      "##ｃ": 7620,
      "##ｉ": 7621,
      "##ｇ": 7622,
      "##𝕓": 7623,
      "##𝕕": 7624,
      "##𝕗": 7625,
      "##𝕘": 7626,
      "##𝕙": 7627,
      "##𝕚": 7628,
      "##𝕛": 7629,
      "##𝕝": 7630,
      "##𝕞": 7631,
      "##𝕟": 7632,
      "##𝕠": 7633,
      "##𝕡": 7634,
      "##𝕢": 7635,
      "##𝕤": 7636,
      "##𝕧": 7637,
      "##𝕨": 7638,
      "##𝕩": 7639,
      "##𝕪": 7640,
      "##𝕫": 7641,
      "##𝔸": 7642,
      "##𝔹": 7643,
      "##ߍ": 7644,
      "##ꬓ": 7645,
      "##យ": 7646,
      "##ា": 7647,
      "##ௗ": 7648,
      "##𝖘": 7649,
      "##𝖋": 7650,
      "##⹉": 7651,
      "##˼": 7652,
      "##ȶ": 7653,
      "##ˡ": 7654,
      "##⻥": 7655,
      "##ә": 7656,
      "##វ": 7657,
      "##᯷": 7658,
      "##ᇬ": 7659,
      "##ଟ": 7660,
      "##ᦈ": 7661,
      "##ˋ": 7662,
      "##ᨸ": 7663,
      "##🖐": 7664,
      "##⻍": 7665,
      "##ᣕ": 7666,
      "##ౡ": 7667,
      "##ꤿ": 7668,
      "##׸": 7669,
      "##ⴙ": 7670,
      "##ഊ": 7671,
      "##ᦰ": 7672,
      "##៴": 7673,
      "##අ": 7674,
      "##ℯ": 7675,
      "##☂": 7676,
      "##ﺦ": 7677,
      "##᷶": 7678,
      "##⻚": 7679,
      "##⹟": 7680,
      "##᝵": 7681,
      "##᨝": 7682,
      "##ʴ": 7683,
      "##ꬑ": 7684,
      "##ⶂ": 7685,
      "##⺕": 7686,
      "##ⶊ": 7687,
      "##હ": 7688,
      "##ર": 7689,
      "##᝷": 7690,
      "##󡢼": 7691,
      "##ŀ": 7692,
      "##ம": 7693,
      "##ப": 7694,
      "##த": 7695,
      "##ᢀ": 7696,
      "##஋": 7697,
      "##ः": 7698,
      "##᫽": 7699,
      "##⹝": 7700,
      "##⻬": 7701,
      "##௞": 7702,
      "##ᵟ": 7703,
      "##﮶": 7704,
      "##೎": 7705,
      "##ಐ": 7706,
      "##߿": 7707,
      "##⺂": 7708,
      "##᧍": 7709,
      "##ꮞ": 7710,
      "##୧": 7711,
      "##⹰": 7712,
      "##៞": 7713,
      "##᫻": 7714,
      "##ᄏ": 7715,
      "##ෘ": 7716,
      "##₉": 7717,
      "##₁": 7718,
      "##₈": 7719,
      "##ᶩ": 7720,
      "##ࢠ": 7721,
      "##😉": 7722,
      "##ᗙ": 7723,
      "##৯": 7724,
      "##᜻": 7725,
      "##⹿": 7726,
      "##◣": 7727,
      "##ി": 7728,
      "##˴": 7729,
      "##⁷": 7730,
      "##अ": 7731,
      "##₰": 7732,
      "##☻": 7733,
      "##ᅛ": 7734,
      "##৽": 7735,
      "##ᤁ": 7736,
      "##ϱ": 7737,
      "##⻗": 7738,
      "##ٺ": 7739,
      "##🎹": 7740,
      "##🎺": 7741,
      "##🎤": 7742,
      "##🎸": 7743,
      "##🎷": 7744,
      "##؏": 7745,
      "##❺": 7746,
      "##≤": 7747,
      "##📍": 7748,
      "##୺": 7749,
      "##ឨ": 7750,
      "##⻃": 7751,
      "##ԡ": 7752,
      "##ގ": 7753,
      "##኿": 7754,
      "##⹱": 7755,
      "##𝓌": 7756,
      "##𝒾": 7757,
      "##𝓉": 7758,
      "##𝑒": 7759,
      "##𝓇": 7760,
      "##😋": 7761,
      "##󥹥": 7762,
      "##⹲": 7763,
      "##۷": 7764,
      "##⻘": 7765,
      "##ᬿ": 7766,
      "##ᖆ": 7767,
      "##໭": 7768,
      "##િ": 7769,
      "##ઝ": 7770,
      "##ࡈ": 7771,
      "##ᚰ": 7772,
      "##᤾": 7773,
      "##ᵙ": 7774,
      "##඘": 7775,
      "##ˣ": 7776,
      "##ⴊ": 7777,
      "##🥁": 7778,
      "##◉": 7779,
      "##♩": 7780,
      "##φ": 7781,
      "##ɯ": 7782,
      "##໠": 7783,
      "##ᓦ": 7784,
      "##ᛥ": 7785,
      "##ᳱ": 7786,
      "##⻣": 7787,
      "##⻸": 7788,
      "##⹬": 7789,
      "##ڌ": 7790,
      "##⺲": 7791,
      "##᥈": 7792,
      "##ᡎ": 7793,
      "##𝓊": 7794,
      "##𝓅": 7795,
      "##⻠": 7796,
      "##⻁": 7797,
      "##˦": 7798,
      "##ഝ": 7799,
      "##ᚨ": 7800,
      "##៳": 7801,
      "##ᑲ": 7802,
      "##ⶬ": 7803,
      "##ᕽ": 7804,
      "##ᄂ": 7805,
      "##ਨ": 7806,
      "##჉": 7807,
      "##⺹": 7808,
      "##🇶": 7809,
      "##᧝": 7810,
      "##ᶂ": 7811,
      "##ᬑ": 7812,
      "##ଂ": 7813,
      "##ಸ": 7814,
      "##⁰": 7815,
      "##ʃ": 7816,
      "##ⷀ": 7817,
      "##ᵹ": 7818,
      "##ෳ": 7819,
      "##࿵": 7820,
      "##ᦥ": 7821,
      "##᠕": 7822,
      "##ᮙ": 7823,
      "##ᶼ": 7824,
      "##὆": 7825,
      "##⁶": 7826,
      "##⺏": 7827,
      "##☜": 7828,
      "##࢙": 7829,
      "##ൔ": 7830,
      "##ᕯ": 7831,
      "##ന": 7832,
      "##ᬲ": 7833,
      "##ᯕ": 7834,
      "##ਉ": 7835,
      "##ඌ": 7836,
      "##ॴ": 7837,
      "##ᡘ": 7838,
      "##៾": 7839,
      "##ບ": 7840,
      "##ᑑ": 7841,
      "##૕": 7842,
      "##ꮯ": 7843,
      "##⻪": 7844,
      "##ҕ": 7845,
      "##᭷": 7846,
      "##᲌": 7847,
      "##ᇳ": 7848,
      "##᧷": 7849,
      "##ѡ": 7850,
      "##ԕ": 7851,
      "##ॳ": 7852,
      "##ಀ": 7853,
      "##ᓼ": 7854,
      "##✔": 7855,
      "##۳": 7856,
      "##ᦄ": 7857,
      "##ඉ": 7858,
      "##⹡": 7859,
      "##⻂": 7860,
      "##😎": 7861,
      "##আ": 7862,
      "##ﺹ": 7863,
      "##ཅ": 7864,
      "##ᖋ": 7865,
      "##ᨴ": 7866,
      "##᜸": 7867,
      "##ᅊ": 7868,
      "##ᨺ": 7869,
      "##༢": 7870,
      "##ᤀ": 7871,
      "##﮵": 7872,
      "##᛿": 7873,
      "##ଘ": 7874,
      "##ᑟ": 7875,
      "##ᗎ": 7876,
      "##ζ": 7877,
      "##ᄺ": 7878,
      "##േ": 7879,
      "##ᫍ": 7880,
      "##ッ": 7881,
      "##テ": 7882,
      "##⤽": 7883,
      "##№": 7884,
      "##ബ": 7885,
      "##ച": 7886,
      "##ဃ": 7887,
      "##ⷅ": 7888,
      "##៛": 7889,
      "##ᒪ": 7890,
      "##៫": 7891,
      "##ⶆ": 7892,
      "##ৎ": 7893,
      "##ଙ": 7894,
      "##ᶻ": 7895,
      "##🤳": 7896,
      "##ݍ": 7897,
      "##ฑ": 7898,
      "##ħ": 7899,
      "##ᐗ": 7900,
      "##ᚋ": 7901,
      "##ঐ": 7902,
      "##᨜": 7903,
      "##߇": 7904,
      "##௝": 7905,
      "##ૡ": 7906,
      "##৆": 7907,
      "##💋": 7908,
      "##ᮔ": 7909,
      "##ᣬ": 7910,
      "##ℜ": 7911,
      "##ც": 7912,
      "##਷": 7913,
      "##ɉ": 7914,
      "##ᘛ": 7915,
      "##ܥ": 7916,
      "##෾": 7917,
      "##❻": 7918,
      "##ય": 7919,
      "##᧋": 7920,
      "##ᙍ": 7921,
      "##ᴝ": 7922,
      "##໰": 7923,
      "##⹯": 7924,
      "##ⶈ": 7925,
      "##ប": 7926,
      "##ɿ": 7927,
      "##ࡡ": 7928,
      "##ᳳ": 7929,
      "##ᤝ": 7930,
      "##ᅋ": 7931,
      "##ઈ": 7932,
      "##᧔": 7933,
      "##ੜ": 7934,
      "##ᦖ": 7935,
      "##ᢚ": 7936,
      "##ᤔ": 7937,
      "##ҭ": 7938,
      "##᣺": 7939,
      "##ᛷ": 7940,
      "##ڊ": 7941,
      "##ᢉ": 7942,
      "##ҟ": 7943,
      "##๠": 7944,
      "##ᙞ": 7945,
      "##ᓲ": 7946,
      "##⺝": 7947,
      "##৞": 7948,
      "##♭": 7949,
      "##⹫": 7950,
      "##󤬼": 7951,
      "##ხ": 7952,
      "##ټ": 7953,
      "##ᡷ": 7954,
      "##˱": 7955,
      "##ᖘ": 7956,
      "##🇭": 7957,
      "##⏰": 7958,
      "##ﻹ": 7959,
      "##⻑": 7960,
      "##ᅄ": 7961,
      "##ᇣ": 7962,
      "##඾": 7963,
      "##ᕸ": 7964,
      "##ᇫ": 7965,
      "##ᓅ": 7966,
      "##ᡳ": 7967,
      "##ᑃ": 7968,
      "##ᙁ": 7969,
      "##ձ": 7970,
      "##ꮨ": 7971,
      "##঎": 7972,
      "##ᛪ": 7973,
      "##ඤ": 7974,
      "##⻡": 7975,
      "##ழ": 7976,
      "##ᗟ": 7977,
      "##ҙ": 7978,
      "##੩": 7979,
      "##ඕ": 7980,
      "##꡼": 7981,
      "##ࡇ": 7982,
      "##ꭳ": 7983,
      "##ᗬ": 7984,
      "##ા": 7985,
      "##વ": 7986,
      "##⹔": 7987,
      "##⤬": 7988,
      "##ೡ": 7989,
      "##ȹ": 7990,
      "##᪑": 7991,
      "##ସ": 7992,
      "##ڰ": 7993,
      "##ɹ": 7994,
      "##ڿ": 7995,
      "##⴦": 7996,
      "##߶": 7997,
      "##ࡤ": 7998,
      "##ⶰ": 7999,
      "##ɵ": 8000,
      "##ؽ": 8001,
      "##ڷ": 8002,
      "##ﺾ": 8003,
      "##ƃ": 8004,
      "##←": 8005,
      "##ѳ": 8006,
      "##ɑ": 8007,
      "##➢": 8008,
      "##ශ": 8009,
      "##ۃ": 8010,
      "##᭡": 8011,
      "##೽": 8012,
      "##ֆ": 8013,
      "##ᅽ": 8014,
      "##ᳪ": 8015,
      "##ᨳ": 8016,
      "##✅": 8017,
      "##ⸯ": 8018,
      "##⻶": 8019,
      "##န": 8020,
      "##۩": 8021,
      "##🕋": 8022,
      "##━": 8023,
      "##💓": 8024,
      "##┛": 8025,
      "##⹺": 8026,
      "##⺋": 8027,
      "##🦰": 8028,
      "##ۄ": 8029,
      "##℃": 8030,
      "##ᢘ": 8031,
      "##ᄠ": 8032,
      "##࿞": 8033,
      "##ᖸ": 8034,
      "##ᴑ": 8035,
      "##ఉ": 8036,
      "##⻰": 8037,
      "##ᑐ": 8038,
      "##ﻎ": 8039,
      "##უ": 8040,
      "##ލ": 8041,
      "##ᒵ": 8042,
      "##ᅈ": 8043,
      "##࿲": 8044,
      "##ᗆ": 8045,
      "##ᱺ": 8046,
      "##୏": 8047,
      "##ᮠ": 8048,
      "##ᓨ": 8049,
      "##᧪": 8050,
      "##ⷃ": 8051,
      "##ធ": 8052,
      "##മ": 8053,
      "##യ": 8054,
      "##സ": 8055,
      "##ം": 8056,
      "##⻮": 8057,
      "##ⲣ": 8058,
      "##ⲓ": 8059,
      "##ﻆ": 8060,
      "##࡯": 8061,
      "##ᄎ": 8062,
      "##𝓧": 8063,
      "##𝐭": 8064,
      "##𝟙": 8065,
      "##𝟚": 8066,
      "##𝟛": 8067,
      "##𝟜": 8068,
      "##𝟝": 8069,
      "##𝟞": 8070,
      "##𝟟": 8071,
      "##𝟠": 8072,
      "##𝟡": 8073,
      "##𝟘": 8074,
      "##ԙ": 8075,
      "##ޓ": 8076,
      "##཯": 8077,
      "##ꮶ": 8078,
      "##࣍": 8079,
      "##᾿": 8080,
      "##ᛁ": 8081,
      "##ໂ": 8082,
      "##⺘": 8083,
      "##ᴨ": 8084,
      "##⺜": 8085,
      "##ཁ": 8086,
      "##⻏": 8087,
      "##⺟": 8088,
      "##℅": 8089,
      "##⻙": 8090,
      "##❹": 8091,
      "##𝓈": 8092,
      "##𝒿": 8093,
      "##ク": 8094,
      "##ជ": 8095,
      "##ၗ": 8096,
      "##ⶸ": 8097,
      "##ⶐ": 8098,
      "##⁸": 8099,
      "##ෂ": 8100,
      "##౿": 8101,
      "##଀": 8102,
      "##ᦙ": 8103,
      "##ᐳ": 8104,
      "##▬": 8105,
      "##⹢": 8106,
      "##ᐹ": 8107,
      "##ᓴ": 8108,
      "##ޟ": 8109,
      "##ܘ": 8110,
      "##❦": 8111,
      "##✫": 8112,
      "##ᓺ": 8113,
      "##ҽ": 8114,
      "##೒": 8115,
      "##ᜦ": 8116,
      "##ಓ": 8117,
      "##ԑ": 8118,
      "##♠": 8119,
      "##⻦": 8120,
      "##ឪ": 8121,
      "##ݬ": 8122,
      "##ӌ": 8123,
      "##ᰇ": 8124,
      "##ﻼ": 8125,
      "##ᯪ": 8126,
      "##ᒒ": 8127,
      "##ৠ": 8128,
      "##ۈ": 8129,
      "##⺐": 8130,
      "##ӊ": 8131,
      "##੊": 8132,
      "##ᥨ": 8133,
      "##ү": 8134,
      "##ݎ": 8135,
      "##ݸ": 8136,
      "##ᇀ": 8137,
      "##❸": 8138,
      "##ே": 8139,
      "##க": 8140,
      "##ԃ": 8141,
      "##ᬘ": 8142,
      "##᭄": 8143,
      "##ᑪ": 8144,
      "##᡿": 8145,
      "##ѩ": 8146,
      "##᫤": 8147,
      "##ʸ": 8148,
      "##ܢ": 8149,
      "##ܓ": 8150,
      "##ܠ": 8151,
      "##❀": 8152,
      "##య": 8153,
      "##ತ": 8154,
      "##ᑍ": 8155,
      "##຿": 8156,
      "##ڑ": 8157,
      "##⺽": 8158,
      "##⹤": 8159,
      "##⹴": 8160,
      "##᝛": 8161,
      "##ᅦ": 8162,
      "##⹣": 8163,
      "##ಲ": 8164,
      "##ᬾ": 8165,
      "##ࣟ": 8166,
      "##┘": 8167,
      "##⺶": 8168,
      "##ڭ": 8169,
      "##ᛸ": 8170,
      "##৵": 8171,
      "##໩": 8172,
      "##᧶": 8173,
      "##ঽ": 8174,
      "##ꮕ": 8175,
      "##ᱸ": 8176,
      "##ᅺ": 8177,
      "##ރ": 8178,
      "##ᑼ": 8179,
      "##๗": 8180,
      "##ಃ": 8181,
      "##ࣝ": 8182,
      "##᝱": 8183,
      "##𝒷": 8184,
      "##𝒸": 8185,
      "##𝒹": 8186,
      "##𝒻": 8187,
      "##𝑔": 8188,
      "##𝒽": 8189,
      "##𝓀": 8190,
      "##𝓁": 8191,
      "##𝓂": 8192,
      "##𝓃": 8193,
      "##𝑜": 8194,
      "##𝓆": 8195,
      "##𝓋": 8196,
      "##𝓍": 8197,
      "##𝓎": 8198,
      "##𝓏": 8199,
      "##ऒ": 8200,
      "##ᝫ": 8201,
      "##ᱪ": 8202,
      "##˺": 8203,
      "##⺰": 8204,
      "##⺓": 8205,
      "##┉": 8206,
      "##┄": 8207,
      "##ᗖ": 8208,
      "##󤷤": 8209,
      "##ࢶ": 8210,
      "##௰": 8211,
      "##᤬": 8212,
      "##ᘳ": 8213,
      "##ࢪ": 8214,
      "##૤": 8215,
      "##൷": 8216,
      "##഑": 8217,
      "##😭": 8218,
      "##ۆ": 8219,
      "##ᶬ": 8220,
      "##᪜": 8221,
      "##🎨": 8222,
      "##ꭴ": 8223,
      "##৅": 8224,
      "##⹃": 8225,
      "##⺫": 8226,
      "##ᯙ": 8227,
      "##༟": 8228,
      "##ᩤ": 8229,
      "##૱": 8230,
      "##◥": 8231,
      "##🀄": 8232,
      "##🗽": 8233,
      "##🦑": 8234,
      "##👻": 8235,
      "##ஊ": 8236,
      "##ூ": 8237,
      "##ᢶ": 8238,
      "##ᠣ": 8239,
      "##ᕕ": 8240,
      "##๳": 8241,
      "##և": 8242,
      "##⹽": 8243,
      "##ಒ": 8244,
      "##ᬫ": 8245,
      "##዇": 8246,
      "##᥽": 8247,
      "##ᣴ": 8248,
      "##ԝ": 8249,
      "##ອ": 8250,
      "##਱": 8251,
      "##ᠷ": 8252,
      "##⹧": 8253,
      "##ᣎ": 8254,
      "##ᓎ": 8255,
      "##ඁ": 8256,
      "##ᮌ": 8257,
      "##ݱ": 8258,
      "##ݴ": 8259,
      "##ҩ": 8260,
      "##ʳ": 8261,
      "##󣬱": 8262,
      "##ٽ": 8263,
      "##󤿤": 8264,
      "##ފ": 8265,
      "##ʎ": 8266,
      "##ყ": 8267,
      "##ڃ": 8268,
      "##۹": 8269,
      "##ܛ": 8270,
      "##﮻": 8271,
      "##ᱡ": 8272,
      "##ᘫ": 8273,
      "##௽": 8274,
      "##ର": 8275,
      "##⺾": 8276,
      "##৙": 8277,
      "##ｗ": 8278,
      "##ｅ": 8279,
      "##๪": 8280,
      "##ᶋ": 8281,
      "##ᅨ": 8282,
      "##˨": 8283,
      "##೻": 8284,
      "##ङ": 8285,
      "##ᜣ": 8286,
      "##ᅢ": 8287,
      "##ݾ": 8288,
      "##ᆾ": 8289,
      "##ຕ": 8290,
      "##⺒": 8291,
      "##⻈": 8292,
      "##⷗": 8293,
      "##ꭽ": 8294,
      "##ڦ": 8295,
      "##ᓘ": 8296,
      "##ｙ": 8297,
      "##ᯋ": 8298,
      "##ഒ": 8299,
      "##ᬨ": 8300,
      "##⻴": 8301,
      "##ʑ": 8302,
      "##௠": 8303,
      "##˒": 8304,
      "##ސ": 8305,
      "##ᕂ": 8306,
      "##অ": 8307,
      "##ய": 8308,
      "##ᕃ": 8309,
      "##ᵓ": 8310,
      "##ᕔ": 8311,
      "##ᘯ": 8312,
      "##ⶃ": 8313,
      "##ᗤ": 8314,
      "##⹩": 8315,
      "##𐩢": 8316,
      "##𐩨": 8317,
      "##⺷": 8318,
      "##ᙆ": 8319,
      "##ഢ": 8320,
      "##᪅": 8321,
      "##ǆ": 8322,
      "##ᠫ": 8323,
      "##ᮜ": 8324,
      "##⹗": 8325,
      "##ສ": 8326,
      "##ລ": 8327,
      "##🔪": 8328,
      "##ґ": 8329,
      "##ࠅ": 8330,
      "##ᶾ": 8331,
      "##✽": 8332,
      "##౫": 8333,
      "##ᖦ": 8334,
      "##᢭": 8335,
      "##᪚": 8336,
      "##៷": 8337,
      "##ᆅ": 8338,
      "##ᚼ": 8339,
      "##ᒂ": 8340,
      "##ᶔ": 8341,
      "##ࡰ": 8342,
      "##ਦ": 8343,
      "##⇣": 8344,
      "##💃": 8345,
      "##⻓": 8346,
      "##💫": 8347,
      "##྿": 8348,
      "##܎": 8349,
      "##ᙇ": 8350,
      "##ԅ": 8351,
      "##୾": 8352,
      "##ǝ": 8353,
      "##ហ": 8354,
      "##ⴛ": 8355,
      "##ҿ": 8356,
      "##ᇱ": 8357,
      "##⺴": 8358,
      "##ᆱ": 8359,
      "##⺆": 8360,
      "##﮹": 8361,
      "##ˊ": 8362,
      "##ⱥ": 8363,
      "##ட": 8364,
      "##ங": 8365,
      "##ச": 8366,
      "##ҡ": 8367,
      "##ᦏ": 8368,
      "##ਚ": 8369,
      "##῕": 8370,
      "##ଳ": 8371,
      "##త": 8372,
      "##ɻ": 8373,
      "##ᵤ": 8374,
      "##🔵": 8375,
      "##♡": 8376,
      "##ᛓ": 8377,
      "##ᄍ": 8378,
      "##ၓ": 8379,
      "##ᙰ": 8380,
      "##გ": 8381,
      "##ᝀ": 8382,
      "##ᔭ": 8383,
      "##฿": 8384,
      "##⹓": 8385,
      "##ڇ": 8386,
      "##⺥": 8387,
      "##ណ": 8388,
      "##ᨱ": 8389,
      "##᧡": 8390,
      "##᭶": 8391,
      "##ⷕ": 8392,
      "##đ": 8393,
      "##ɧ": 8394,
      "##ᡂ": 8395,
      "##෗": 8396,
      "##ឞ": 8397,
      "##ᔕ": 8398,
      "##ᘝ": 8399,
      "##ᱬ": 8400,
      "##ᏼ": 8401,
      "##𝖊": 8402,
      "##𝖉": 8403,
      "##𝖎": 8404,
      "##𝖛": 8405,
      "##𝖆": 8406,
      "##𝖑": 8407,
      "##⺛": 8408,
      "##キ": 8409,
      "##ミ": 8410,
      "##ᭆ": 8411,
      "##ࢭ": 8412,
      "##ੀ": 8413,
      "##ᝉ": 8414,
      "##ǁ": 8415,
      "##ᚆ": 8416,
      "##ɓ": 8417,
      "##స": 8418,
      "##᧨": 8419,
      "##࢝": 8420,
      "##ۻ": 8421,
      "##ᡬ": 8422,
      "##ᬩ": 8423,
      "##ƾ": 8424,
      "##ڮ": 8425,
      "##ⴗ": 8426,
      "##ᩓ": 8427,
      "##ᖗ": 8428,
      "##⹠": 8429,
      "##ҏ": 8430,
      "##ೱ": 8431,
      "##ᛈ": 8432,
      "##󤤥": 8433,
      "##ᅉ": 8434,
      "##👨": 8435,
      "##💻": 8436,
      "##ഈ": 8437,
      "##ᘅ": 8438,
      "##ᅫ": 8439,
      "##᤽": 8440,
      "##ᒢ": 8441,
      "##ᨹ": 8442,
      "##ݮ": 8443,
      "##ោ": 8444,
      "##ϑ": 8445,
      "##ⴋ": 8446,
      "##ێ": 8447,
      "##ⴉ": 8448,
      "##ᡈ": 8449,
      "##ᙙ": 8450,
      "##᭸": 8451,
      "##႒": 8452,
      "##ၻ": 8453,
      "##ɨ": 8454,
      "##ࣁ": 8455,
      "##⇒": 8456,
      "##󤫲": 8457,
      "##ᦤ": 8458,
      "##⻱": 8459,
      "##⇓": 8460,
      "##ଊ": 8461,
      "##ᤎ": 8462,
      "##り": 8463,
      "##⻕": 8464,
      "##ଚ": 8465,
      "##ᚘ": 8466,
      "##ᓷ": 8467,
      "##ਙ": 8468,
      "##ᛒ": 8469,
      "##ႊ": 8470,
      "##ᘦ": 8471,
      "##ࡿ": 8472,
      "##᮴": 8473,
      "##ᘟ": 8474,
      "##ᕩ": 8475,
      "##ᑭ": 8476,
      "##ᄸ": 8477,
      "##൓": 8478,
      "##ⱦ": 8479,
      "##﮴": 8480,
      "##⺑": 8481,
      "##៿": 8482,
      "##ᑌ": 8483,
      "##൵": 8484,
      "##🍀": 8485,
      "##⹖": 8486,
      "##ᢂ": 8487,
      "##૨": 8488,
      "##ᦋ": 8489,
      "##ႋ": 8490,
      "##ち": 8491,
      "##ら": 8492,
      "##𝔴": 8493,
      "##𝔦": 8494,
      "##𝔱": 8495,
      "##𝔢": 8496,
      "##𝔯": 8497,
      "##ɼ": 8498,
      "##𝐦": 8499,
      "##ⓛ": 8500,
      "##󤬽": 8501,
      "##⹙": 8502,
      "##௕": 8503,
      "##󥯤": 8504,
      "##┓": 8505,
      "##⹾": 8506,
      "##۵": 8507,
      "##ฐ": 8508,
      "##᠜": 8509,
      "##׶": 8510,
      "##ᳯ": 8511,
      "##ਬ": 8512,
      "##ⲏ": 8513,
      "##⹎": 8514,
      "##ԛ": 8515,
      "##🔅": 8516,
      "##ᵮ": 8517,
      "##ⷚ": 8518,
      "##ᅱ": 8519,
      "##ߥ": 8520,
      "##പ": 8521,
      "##ᴬ": 8522,
      "##ᴮ": 8523,
      "##⻤": 8524,
      "##ꮾ": 8525,
      "##ࠎ": 8526,
      "##෕": 8527,
      "##ڶ": 8528,
      "##ᙐ": 8529,
      "##ᶫ": 8530,
      "##ᆀ": 8531,
      "##෋": 8532,
      "##ᵰ": 8533,
      "##🏆": 8534,
      "##⻜": 8535,
      "##ᩣ": 8536,
      "##ʰ": 8537,
      "##ܔ": 8538,
      "##᪆": 8539,
      "##඄": 8540,
      "##🙇": 8541,
      "##⡪": 8542,
      "##⹑": 8543,
      "##🛑": 8544,
      "##᥹": 8545,
      "##ٴ": 8546,
      "##ᡣ": 8547,
      "##ĳ": 8548,
      "##ᮚ": 8549,
      "##ᕌ": 8550,
      "##᫯": 8551,
      "##ᤄ": 8552,
      "##๤": 8553,
      "##⺩": 8554,
      "##ᥱ": 8555,
      "##൨": 8556,
      "##᧘": 8557,
      "##࢕": 8558,
      "##ᰈ": 8559,
      "##࡬": 8560,
      "##ᥰ": 8561,
      "##✝": 8562,
      "##⻢": 8563,
      "##ᦃ": 8564,
      "##ϒ": 8565,
      "##ᗂ": 8566,
      "##᏿": 8567,
      "##ᠵ": 8568,
      "##࠿": 8569,
      "##ᕰ": 8570,
      "##ᵚ": 8571,
      "##ᗨ": 8572,
      "##֐": 8573,
      "##⺌": 8574,
      "##ᅎ": 8575,
      "##ꤵ": 8576,
      "##⁵": 8577,
      "##⚅": 8578,
      "##℮": 8579,
      "##ⅾ": 8580,
      "##𝖇": 8581,
      "##𝖈": 8582,
      "##𝖌": 8583,
      "##𝖍": 8584,
      "##𝖏": 8585,
      "##𝖐": 8586,
      "##𝖒": 8587,
      "##𝖕": 8588,
      "##𝖖": 8589,
      "##𝖗": 8590,
      "##𝖚": 8591,
      "##𝖜": 8592,
      "##𝖝": 8593,
      "##𝖞": 8594,
      "##𝖟": 8595,
      "##᰺": 8596,
      "##ਡ": 8597,
      "##ᖣ": 8598,
      "##򤪵": 8599,
      "##߾": 8600,
      "##๺": 8601,
      "##ற": 8602,
      "##➡": 8603,
      "##⺎": 8604,
      "##ᖈ": 8605,
      "##ɦ": 8606,
      "##՘": 8607,
      "##ꮄ": 8608,
      "##ᬟ": 8609,
      "##ၶ": 8610,
      "##ᩌ": 8611,
      "##౵": 8612,
      "##ᮍ": 8613,
      "##ឍ": 8614,
      "##ᤸ": 8615,
      "##ᠶ": 8616,
      "##し": 8617,
      "##ৗ": 8618,
      "##ಡ": 8619,
      "##ᵎ": 8620,
      "##រ": 8621,
      "##򽱤": 8622,
      "##ೲ": 8623,
      "##ଧ": 8624,
      "##ϧ": 8625,
      "##੄": 8626,
      "##ᖍ": 8627,
      "##⺮": 8628,
      "##⻇": 8629,
      "##ࠋ": 8630,
      "##ଅ": 8631,
      "##៱": 8632,
      "##ᜤ": 8633,
      "##഼": 8634,
      "##୆": 8635,
      "##ᐄ": 8636,
      "##ქ": 8637,
      "##ᑙ": 8638,
      "##ၸ": 8639,
      "##઻": 8640,
      "##ᚳ": 8641,
      "##᱄": 8642,
      "##ᗸ": 8643,
      "##຋": 8644,
      "##ઠ": 8645,
      "##ᱻ": 8646,
      "##᫏": 8647,
      "##቎": 8648,
      "##ણ": 8649,
      "##ી": 8650,
      "##⻎": 8651,
      "##؎": 8652,
      "##ᵭ": 8653,
      "##ﬀ": 8654,
      "##ถ": 8655,
      "##⻲": 8656,
      "##఻": 8657,
      "##🦲": 8658,
      "##💐": 8659,
      "##⺦": 8660,
      "##ళ": 8661,
      "##᪔": 8662,
      "##ۊ": 8663,
      "##ꭱ": 8664,
      "##ᱚ": 8665,
      "##࿽": 8666,
      "##⻌": 8667,
      "##๯": 8668,
      "##ݿ": 8669,
      "##ఐ": 8670,
      "##ೂ": 8671,
      "##ᅹ": 8672,
      "##ⷞ": 8673,
      "##ঞ": 8674,
      "##᯳": 8675,
      "##࢟": 8676,
      "##ః": 8677,
      "##ᥗ": 8678,
      "##᣾": 8679,
      "##˩": 8680,
      "##⺿": 8681,
      "##េ": 8682,
      "##🔚": 8683,
      "##ᅼ": 8684,
      "##󤸤": 8685,
      "##ᨶ": 8686,
      "##ⷘ": 8687,
      "##⹸": 8688,
      "##⻟": 8689,
      "##く": 8690,
      "##ᡪ": 8691,
      "##१": 8692,
      "##ᨖ": 8693,
      "##ᘻ": 8694,
      "##ៜ": 8695,
      "##ڎ": 8696,
      "##ࡃ": 8697,
      "##ᛨ": 8698,
      "##ࠆ": 8699,
      "##ᵍ": 8700,
      "##෨": 8701,
      "##ᣆ": 8702,
      "##ᄩ": 8703,
      "##᫐": 8704,
      "##὘": 8705,
      "##଍": 8706,
      "##ಎ": 8707,
      "##઀": 8708,
      "##ᠰ": 8709,
      "##ᦺ": 8710,
      "##񤨤": 8711,
      "##ഺ": 8712,
      "##७": 8713,
      "##ᬯ": 8714,
      "##ᬪ": 8715,
      "##቞": 8716,
      "##ષ": 8717,
      "##ᦸ": 8718,
      "##᫫": 8719,
      "##᝕": 8720,
      "##⹍": 8721,
      "##⺱": 8722,
      "##ང": 8723,
      "##ڕ": 8724,
      "##ᗛ": 8725,
      "##⹳": 8726,
      "##⻨": 8727,
      "##ɲ": 8728,
      "##ⶵ": 8729,
      "##ⷒ": 8730,
      "##౉": 8731,
      "##෍": 8732,
      "##ڞ": 8733,
      "##ඛ": 8734,
      "##᱒": 8735,
      "##ᯈ": 8736,
      "##ള": 8737,
      "##ⷜ": 8738,
      "##ᖹ": 8739,
      "##᩟": 8740,
      "##ᵵ": 8741,
      "##ᑱ": 8742,
      "##ᶖ": 8743,
      "##ᵬ": 8744,
      "##ᴙ": 8745,
      "##এ": 8746,
      "##൚": 8747,
      "##ཙ": 8748,
      "##ᇿ": 8749,
      "##⹞": 8750,
      "##𝟣": 8751,
      "##𝟤": 8752,
      "##𝟥": 8753,
      "##𝟦": 8754,
      "##𝟧": 8755,
      "##𝟨": 8756,
      "##𝟩": 8757,
      "##𝟪": 8758,
      "##𝟫": 8759,
      "##᪏": 8760,
      "##ꭼ": 8761,
      "##ᥙ": 8762,
      "##ჩ": 8763,
      "##එ": 8764,
      "##ᆦ": 8765,
      "##ᐝ": 8766,
      "##⺅": 8767,
      "##਍": 8768,
      "##ᮆ": 8769,
      "##ඥ": 8770,
      "##ᗳ": 8771,
      "##৊": 8772,
      "##ᩃ": 8773,
      "##༳": 8774,
      "##ୗ": 8775,
      "##ᘭ": 8776,
      "##ၿ": 8777,
      "##ᓌ": 8778,
      "##ߢ": 8779,
      "##ᨷ": 8780,
      "##ᝈ": 8781,
      "##҂": 8782,
      "##ᘏ": 8783,
      "##⻊": 8784,
      "##෷": 8785,
      "##࿢": 8786,
      "##ᯡ": 8787,
      "##ᰂ": 8788,
      "##ꭹ": 8789,
      "##ᇩ": 8790,
      "##᪍": 8791,
      "##ᠻ": 8792,
      "##ᄢ": 8793,
      "##❓": 8794,
      "##ௐ": 8795,
      "##🤎": 8796,
      "##ࢮ": 8797,
      "##ˀ": 8798,
      "##೪": 8799,
      "##ద": 8800,
      "##ᴌ": 8801,
      "##ᴀ": 8802,
      "##ᶇ": 8803,
      "##᧗": 8804,
      "##ᐚ": 8805,
      "##򤹤": 8806,
      "##ᣙ": 8807,
      "##௵": 8808,
      "##ߒ": 8809,
      "##ᶒ": 8810,
      "##ᖠ": 8811,
      "##ᮛ": 8812,
      "##ᑽ": 8813,
      "##񤫤": 8814,
      "##ʓ": 8815,
      "##೥": 8816,
      "##ᣈ": 8817,
      "##ᐪ": 8818,
      "##ಆ": 8819,
      "##ថ": 8820,
      "##ᒊ": 8821,
      "##ԩ": 8822,
      "##⹭": 8823,
      "##ˏ": 8824,
      "##ᙒ": 8825,
      "##᥎": 8826,
      "##ฝ": 8827,
      "##ઓ": 8828,
      "##⼣": 8829,
      "##ກ": 8830,
      "##಑": 8831,
      "##᷻": 8832,
      "##ခ": 8833,
      "##ရ": 8834,
      "##း": 8835,
      "##🌿": 8836,
      "##👍": 8837,
      "##ୟ": 8838,
      "##ڛ": 8839,
      "##ဿ": 8840,
      "##ᑣ": 8841,
      "##ଢ": 8842,
      "##∞": 8843,
      "##ٵ": 8844,
      "##઺": 8845,
      "##၃": 8846,
      "##៦": 8847,
      "##ಂ": 8848,
      "##ಧ": 8849,
      "##ರ": 8850,
      "##ឩ": 8851,
      "##ᜫ": 8852,
      "##ញ": 8853,
      "##ߘ": 8854,
      "##௭": 8855,
      "##ᰤ": 8856,
      "##໗": 8857,
      "##ᴓ": 8858,
      "##ꬉ": 8859,
      "##⻅": 8860,
      "##⹄": 8861,
      "##ᒖ": 8862,
      "##׻": 8863,
      "##ࢎ": 8864,
      "##🌱": 8865,
      "##ࡲ": 8866,
      "##⹛": 8867,
      "##⻒": 8868,
      "##ᡥ": 8869,
      "##ᗘ": 8870,
      "##ʧ": 8871,
      "##ᴉ": 8872,
      "##ဩ": 8873,
      "##᪞": 8874,
      "##ઌ": 8875,
      "##ស": 8876,
      "##ខ": 8877,
      "##ម": 8878,
      "##ែ": 8879,
      "##қ": 8880,
      "##ঝ": 8881,
      "##򹯿": 8882,
      "##⻋": 8883,
      "##🏿": 8884,
      "##⻖": 8885,
      "##⷏": 8886,
      "##󤷥": 8887,
      "##⻐": 8888,
      "##ఆ": 8889,
      "##ᕣ": 8890,
      "##ឦ": 8891,
      "##ᗹ": 8892,
      "##⻛": 8893,
      "##෵": 8894,
      "##ᛞ": 8895,
      "##ᐙ": 8896,
      "##៯": 8897,
      "##๰": 8898,
      "##ᆥ": 8899,
      "##ᴻ": 8900,
      "##῾": 8901,
      "##᰸": 8902,
      "##⺡": 8903,
      "##૗": 8904,
      "##ᙀ": 8905,
      "##ښ": 8906,
      "##あ": 8907,
      "##⹏": 8908,
      "##᠟": 8909,
      "##႖": 8910,
      "##ᲁ": 8911,
      "##ᡏ": 8912,
      "##᭥": 8913,
      "##௾": 8914,
      "##༚": 8915,
      "##ᙦ": 8916,
      "##ݳ": 8917,
      "##ݹ": 8918,
      "##ͺ": 8919,
      "##׽": 8920,
      "##✿": 8921,
      "##ᕍ": 8922,
      "##ᐼ": 8923,
      "##ˇ": 8924,
      "##ᄼ": 8925,
      "##ᶥ": 8926,
      "##๵": 8927,
      "##ୠ": 8928,
      "##ᐰ": 8929,
      "##⹌": 8930,
      "##ҍ": 8931,
      "##⹼": 8932,
      "##🎴": 8933,
      "##ࡎ": 8934,
      "##ᑡ": 8935,
      "##ⲿ": 8936,
      "##ᘑ": 8937,
      "##򶷳": 8938,
      "##ᘥ": 8939,
      "##న": 8940,
      "##ᤪ": 8941,
      "##໐": 8942,
      "##᱑": 8943,
      "##૽": 8944,
      "##⹻": 8945,
      "##ⷍ": 8946,
      "##ᢑ": 8947,
      "##ᐠ": 8948,
      "##ｈ": 8949,
      "##ါ": 8950,
      "##✘": 8951,
      "##ऐ": 8952,
      "##ಪ": 8953,
      "##ᬝ": 8954,
      "##ĸ": 8955,
      "##᫉": 8956,
      "##ᆖ": 8957,
      "##ᕱ": 8958,
      "##ฎ": 8959,
      "##🇺": 8960,
      "##ݰ": 8961,
      "##ᘃ": 8962,
      "##ฯ": 8963,
      "##˛": 8964,
      "##ǃ": 8965,
      "##႞": 8966,
      "##౜": 8967,
      "##ᖚ": 8968,
      "##෻": 8969,
      "##५": 8970,
      "##᪈": 8971,
      "##౤": 8972,
      "##జ": 8973,
      "##ᨿ": 8974,
      "##𝔬": 8975,
      "##𝔫": 8976,
      "##𝔣": 8977,
      "##ᕵ": 8978,
      "##᧞": 8979,
      "##ᪿ": 8980,
      "##ⲙ": 8981,
      "##⻔": 8982,
      "##᪛": 8983,
      "##ᶕ": 8984,
      "##࣏": 8985,
      "##ᒥ": 8986,
      "##⺤": 8987,
      "##ࢅ": 8988,
      "##଎": 8989,
      "##๦": 8990,
      "##౻": 8991,
      "##ధ": 8992,
      "##ᨄ": 8993,
      "##ᯟ": 8994,
      "##ᗻ": 8995,
      "##ພ": 8996,
      "##۾": 8997,
      "##཭": 8998,
      "##᫊": 8999,
      "##ਫ": 9000,
      "##ﬁ": 9001,
      "##⷟": 9002,
      "##ખ": 9003,
      "##಩": 9004,
      "##ཌ": 9005,
      "##ﺙ": 9006,
      "##ߺ": 9007,
      "##ᣟ": 9008,
      "##ᆊ": 9009,
      "##ᛂ": 9010,
      "##ޗ": 9011,
      "እን": 9012,
      "##ቸው": 9013,
      "የሚ": 9014,
      "ነው": 9015,
      "##ዎች": 9016,
      "##ነት": 9017,
      "የተ": 9018,
      "እንደ": 9019,
      "ላይ": 9020,
      "##ችን": 9021,
      "እና": 9022,
      "##ለው": 9023,
      "##ንድ": 9024,
      "በመ": 9025,
      "##በት": 9026,
      "እንዲ": 9027,
      "##ገር": 9028,
      "አስ": 9029,
      "##ውን": 9030,
      "##ዋል": 9031,
      "##በር": 9032,
      "##ሆን": 9033,
      "የአ": 9034,
      "##ስት": 9035,
      "በአ": 9036,
      "##ትዮ": 9037,
      "##ዚህ": 9038,
      "የመ": 9039,
      "##ጵያ": 9040,
      "##ትዮጵያ": 9041,
      "መን": 9042,
      "በተ": 9043,
      "አይ": 9044,
      "##ቶች": 9045,
      "##ለም": 9046,
      "ወደ": 9047,
      "##ስጥ": 9048,
      "ለመ": 9049,
      "##ለት": 9050,
      "##ሆኑ": 9051,
      "##ደር": 9052,
      "##ደረ": 9053,
      "ግን": 9054,
      "አን": 9055,
      "ለማ": 9056,
      "##ሆነ": 9057,
      "##ቸውን": 9058,
      "ውስጥ": 9059,
      "##ንም": 9060,
      "እየ": 9061,
      "ይህ": 9062,
      "በማ": 9063,
      "##ሪያ": 9064,
      "ስለ": 9065,
      "##ተኛ": 9066,
      "የሚያ": 9067,
      "##ትን": 9068,
      "##በረ": 9069,
      "ጋር": 9070,
      "ነበር": 9071,
      "##ላይ": 9072,
      "አለ": 9073,
      "ጊዜ": 9074,
      "የም": 9075,
      "##ያን": 9076,
      "##ራት": 9077,
      "የማ": 9078,
      "##ረት": 9079,
      "##ድር": 9080,
      "ከተ": 9081,
      "እንዳ": 9082,
      "አል": 9083,
      "ባለ": 9084,
      "##ኢትዮጵያ": 9085,
      "##ስተ": 9086,
      "አንድ": 9087,
      "##ገባ": 9088,
      "##ርት": 9089,
      "እስ": 9090,
      "እንደሚ": 9091,
      "መንግ": 9092,
      "20": 9093,
      "##ሁን": 9094,
      "በሚ": 9095,
      "##ላል": 9096,
      "##ድረ": 9097,
      "##ርስ": 9098,
      "ምክ": 9099,
      "##ዝብ": 9100,
      "##ናል": 9101,
      "ነገር": 9102,
      "##ቱን": 9103,
      "##ንያ": 9104,
      "##ሮች": 9105,
      "##ዲስ": 9106,
      "##መን": 9107,
      "ወይ": 9108,
      "ኢትዮጵያ": 9109,
      "##ሰብ": 9110,
      "ሁሉ": 9111,
      "ምን": 9112,
      "##ሎች": 9113,
      "##መለ": 9114,
      "ጉዳ": 9115,
      "##ትና": 9116,
      "አገ": 9117,
      "##ራዊ": 9118,
      "##ምን": 9119,
      "ደግ": 9120,
      "##ረጃ": 9121,
      "እያ": 9122,
      "የነ": 9123,
      "ቤት": 9124,
      "##ላቸው": 9125,
      "ሰው": 9126,
      "መል": 9127,
      "##ንግ": 9128,
      "ያለ": 9129,
      "##ሪካ": 9130,
      "በእ": 9131,
      "ደግሞ": 9132,
      "ብቻ": 9133,
      "የእ": 9134,
      "##ረው": 9135,
      "##ጀመ": 9136,
      "##ታል": 9137,
      "##ግባ": 9138,
      "ሳይ": 9139,
      "አስተ": 9140,
      "መስ": 9141,
      "ሰዎች": 9142,
      "##ችሁ": 9143,
      "##ገድ": 9144,
      "##ዳን": 9145,
      "ድር": 9146,
      "##መት": 9147,
      "##ለን": 9148,
      "አካ": 9149,
      "አባ": 9150,
      "##ፈል": 9151,
      "##ታት": 9152,
      "##ብር": 9153,
      "##ግር": 9154,
      "##ከል": 9155,
      "##ቅር": 9156,
      "ያለው": 9157,
      "##ኛው": 9158,
      "##ላት": 9159,
      "የሰ": 9160,
      "##ሉት": 9161,
      "##ልጣ": 9162,
      "##ነው": 9163,
      "እየተ": 9164,
      "አብ": 9165,
      "##ማሪ": 9166,
      "ከአ": 9167,
      "አም": 9168,
      "ከመ": 9169,
      "##ተው": 9170,
      "##ታወ": 9171,
      "እነ": 9172,
      "##ባቸው": 9173,
      "አበ": 9174,
      "ምክንያ": 9175,
      "##ሚያ": 9176,
      "መሆኑ": 9177,
      "ብዙ": 9178,
      "##ታቸው": 9179,
      "ወይም": 9180,
      "##ለሁ": 9181,
      "በዚህ": 9182,
      "##በሩ": 9183,
      "የኢትዮጵያ": 9184,
      "##ናት": 9185,
      "##ኞች": 9186,
      "##ምህ": 9187,
      "የወ": 9188,
      "##ድረግ": 9189,
      "##መራ": 9190,
      "##ኋላ": 9191,
      "##ለያ": 9192,
      "##ኔታ": 9193,
      "ናቸው": 9194,
      "201": 9195,
      "አቶ": 9196,
      "እር": 9197,
      "አይደ": 9198,
      "##ከተ": 9199,
      "##ንን": 9200,
      "##ማራ": 9201,
      "##ዎችን": 9202,
      "ከፍ": 9203,
      "##ለቲ": 9204,
      "ቀን": 9205,
      "##ቀር": 9206,
      "##ራል": 9207,
      "##ረስ": 9208,
      "##ደረገ": 9209,
      "ሁኔታ": 9210,
      "##ግራ": 9211,
      "በኋላ": 9212,
      "##ታው": 9213,
      "##ከት": 9214,
      "##ድን": 9215,
      "##ባቢ": 9216,
      "##ቦች": 9217,
      "##ማት": 9218,
      "##ገኘ": 9219,
      "የት": 9220,
      "ክፍ": 9221,
      "##ቅም": 9222,
      "##ልም": 9223,
      "##የት": 9224,
      "በላይ": 9225,
      "##ጠና": 9226,
      "##ጥር": 9227,
      "##ተር": 9228,
      "##ንስ": 9229,
      "##ታዊ": 9230,
      "##መል": 9231,
      "ያስ": 9232,
      "##ጠቀ": 9233,
      "##ኖር": 9234,
      "##ፊት": 9235,
      "##መስ": 9236,
      "##ገኙ": 9237,
      "##ሥት": 9238,
      "##ይወ": 9239,
      "##ለቲካ": 9240,
      "አበባ": 9241,
      "ምር": 9242,
      "##ያው": 9243,
      "##ጠር": 9244,
      "##ገን": 9245,
      "እስከ": 9246,
      "አድር": 9247,
      "##ብረ": 9248,
      "##ባት": 9249,
      "ከተማ": 9250,
      "##ምሮ": 9251,
      "አሁን": 9252,
      "##ልል": 9253,
      "##ጣት": 9254,
      "##ያስ": 9255,
      "ሥራ": 9256,
      "##ገለ": 9257,
      "እኔ": 9258,
      "አዲስ": 9259,
      "ሚኒ": 9260,
      "ማስ": 9261,
      "ብር": 9262,
      "ሲሆን": 9263,
      "##ገራ": 9264,
      "ማለት": 9265,
      "ለአ": 9266,
      "##ረዳ": 9267,
      "የሆነ": 9268,
      "##ዎቹ": 9269,
      "##ለች": 9270,
      "በቀ": 9271,
      "ብሎ": 9272,
      "ሆኖ": 9273,
      "##ሪክ": 9274,
      "የህ": 9275,
      "ቤተ": 9276,
      "አይደለም": 9277,
      "ጉዳይ": 9278,
      "##ርቲ": 9279,
      "##ሔር": 9280,
      "##ላም": 9281,
      "##ግል": 9282,
      "##ረጋ": 9283,
      "##ጣም": 9284,
      "##ገል": 9285,
      "መንገድ": 9286,
      "ማን": 9287,
      "ሆነ": 9288,
      "##ያቄ": 9289,
      "መካ": 9290,
      "##መር": 9291,
      "##ርስቲ": 9292,
      "##ሰው": 9293,
      "##ክት": 9294,
      "##ሳት": 9295,
      "##ባል": 9296,
      "ድርጅ": 9297,
      "ምክንያት": 9298,
      "የስ": 9299,
      "ያል": 9300,
      "መሆኑን": 9301,
      "ስራ": 9302,
      "##ህል": 9303,
      "##00": 9304,
      "##ምር": 9305,
      "ሌላ": 9306,
      "ይች": 9307,
      "##ቢያ": 9308,
      "##ብት": 9309,
      "##ሰራ": 9310,
      "እንዴ": 9311,
      "ጥያቄ": 9312,
      "##ርድ": 9313,
      "##ዓት": 9314,
      "##ዚያ": 9315,
      "እንጂ": 9316,
      "##ከላ": 9317,
      "ዛሬ": 9318,
      "##ይል": 9319,
      "መንግስት": 9320,
      "አው": 9321,
      "##ቷል": 9322,
      "በር": 9323,
      "##ልቅ": 9324,
      "እንዲሁ": 9325,
      "##ጠበ": 9326,
      "##ሳይ": 9327,
      "##ንት": 9328,
      "አደ": 9329,
      "##ግዚ": 9330,
      "##ርያ": 9331,
      "##ላማ": 9332,
      "##ታችን": 9333,
      "##ሰማ": 9334,
      "የኢ": 9335,
      "ህዝብ": 9336,
      "##ኖች": 9337,
      "ደረጃ": 9338,
      "ነገ": 9339,
      "##ክል": 9340,
      "የቀ": 9341,
      "ከፍተኛ": 9342,
      "##ዮን": 9343,
      "መሰ": 9344,
      "ዓመት": 9345,
      "##ምህርት": 9346,
      "##ለያዩ": 9347,
      "ከዚህ": 9348,
      "##ሽን": 9349,
      "ወቅ": 9350,
      "##ቀው": 9351,
      "##ነሳ": 9352,
      "##ሩት": 9353,
      "የነበረ": 9354,
      "##አብ": 9355,
      "##ኝነት": 9356,
      "ከእ": 9357,
      "##ዘጋ": 9358,
      "##ገና": 9359,
      "እው": 9360,
      "ተጠ": 9361,
      "##ኛል": 9362,
      "##ይት": 9363,
      "ይህን": 9364,
      "##መጣ": 9365,
      "##ሎት": 9366,
      "በጣም": 9367,
      "የው": 9368,
      "##ግለ": 9369,
      "##ስፋ": 9370,
      "##ደው": 9371,
      "##ላፊ": 9372,
      "##ሪዎች": 9373,
      "##ፍት": 9374,
      "##ግዚአብ": 9375,
      "##ችል": 9376,
      "##ውያን": 9377,
      "##ላሉ": 9378,
      "##ጀመሪያ": 9379,
      "ስር": 9380,
      "##ፈው": 9381,
      "##ምና": 9382,
      "##ገኝ": 9383,
      "መካከል": 9384,
      "##ወሰ": 9385,
      "##በል": 9386,
      "##ግብ": 9387,
      "##ጠው": 9388,
      "##ዮች": 9389,
      "##ተዋል": 9390,
      "##መድ": 9391,
      "##ገው": 9392,
      "##ቱም": 9393,
      "##ዘብ": 9394,
      "##ሱን": 9395,
      "የበ": 9396,
      "##ወጣ": 9397,
      "በፊት": 9398,
      "እንዲሁም": 9399,
      "አገል": 9400,
      "##መው": 9401,
      "##ሩን": 9402,
      "##ዱስ": 9403,
      "ቦታ": 9404,
      "##መታት": 9405,
      "በየ": 9406,
      "##ኩል": 9407,
      "##ለይ": 9408,
      "አቀ": 9409,
      "እንኳ": 9410,
      "ወን": 9411,
      "##ካሄ": 9412,
      "እንዲህ": 9413,
      "ክልል": 9414,
      "##ሉም": 9415,
      "እንደሆነ": 9416,
      "የታ": 9417,
      "የማይ": 9418,
      "##ቶችን": 9419,
      "##ሞክ": 9420,
      "##ናገ": 9421,
      "ችግር": 9422,
      "መጠ": 9423,
      "ምንም": 9424,
      "በሰ": 9425,
      "ተወ": 9426,
      "ስም": 9427,
      "##ታቸውን": 9428,
      "መንግሥት": 9429,
      "##ላክ": 9430,
      "የሚያስ": 9431,
      "##ለዋል": 9432,
      "##ንና": 9433,
      "##ፍሪካ": 9434,
      "ፕሮ": 9435,
      "##ግዚአብሔር": 9436,
      "ተቀ": 9437,
      "አካባቢ": 9438,
      "ቢሆን": 9439,
      "ጠቅ": 9440,
      "አሳ": 9441,
      "ሚኒስት": 9442,
      "##ሜሪካ": 9443,
      "##ደም": 9444,
      "ሳይሆን": 9445,
      "በም": 9446,
      "##ጨማሪ": 9447,
      "በስ": 9448,
      "##ይወት": 9449,
      "##በው": 9450,
      "ከሚ": 9451,
      "የሚል": 9452,
      "በወ": 9453,
      "ተብ": 9454,
      "ወቅት": 9455,
      "##ገሪ": 9456,
      "##ይነት": 9457,
      "##ጆች": 9458,
      "##ቸዋል": 9459,
      "##ዓለም": 9460,
      "##ልጣን": 9461,
      "ድረስ": 9462,
      "##የር": 9463,
      "ፓርቲ": 9464,
      "##ጨረ": 9465,
      "እንዴት": 9466,
      "ሲያ": 9467,
      "##ላለ": 9468,
      "በኢትዮጵያ": 9469,
      "##ንተ": 9470,
      "##ቀት": 9471,
      "##ሳብ": 9472,
      "ሁለት": 9473,
      "እኛ": 9474,
      "##ነበረ": 9475,
      "ዋና": 9476,
      "ተቋ": 9477,
      "##ህን": 9478,
      "##ማር": 9479,
      "ልዩ": 9480,
      "ገል": 9481,
      "አገልግ": 9482,
      "አር": 9483,
      "##ፖለቲካ": 9484,
      "መረጃ": 9485,
      "##ሰባ": 9486,
      "ይሄ": 9487,
      "##ደረጉ": 9488,
      "አገር": 9489,
      "እጅ": 9490,
      "ተከ": 9491,
      "በት": 9492,
      "##ምነት": 9493,
      "ልጅ": 9494,
      "##ቸዉ": 9495,
      "##ባለ": 9496,
      "##ሆና": 9497,
      "##ረን": 9498,
      "ዓለም": 9499,
      "##ዶች": 9500,
      "አላ": 9501,
      "##ፋት": 9502,
      "##መረ": 9503,
      "##ክር": 9504,
      "በደ": 9505,
      "##ከር": 9506,
      "##ግራይ": 9507,
      "##ሏል": 9508,
      "##ሊዮን": 9509,
      "##ራቸው": 9510,
      "##ኦሮ": 9511,
      "ቅዱስ": 9512,
      "እነዚህ": 9513,
      "##ረብ": 9514,
      "ፕሬ": 9515,
      "ያሉ": 9516,
      "##ነቱ": 9517,
      "በተለይ": 9518,
      "##ቤት": 9519,
      "መር": 9520,
      "ሌሎች": 9521,
      "##ራሲ": 9522,
      "##ረዋል": 9523,
      "ከማ": 9524,
      "አት": 9525,
      "ይችላል": 9526,
      "##ፈለ": 9527,
      "ወር": 9528,
      "##ንዳ": 9529,
      "##ደት": 9530,
      "የሕ": 9531,
      "ተግባ": 9532,
      "##ሥራ": 9533,
      "ዘመን": 9534,
      "የግ": 9535,
      "##ኤል": 9536,
      "እንዲያ": 9537,
      "##ቃት": 9538,
      "##ፈጠ": 9539,
      "የሚሰ": 9540,
      "##ችንን": 9541,
      "ተና": 9542,
      "##ሞች": 9543,
      "ያህል": 9544,
      "በሌ": 9545,
      "ዘር": 9546,
      "##ጽሐ": 9547,
      "ውጤ": 9548,
      "##ዲያ": 9549,
      "ሥር": 9550,
      "ለው": 9551,
      "ክርስቲ": 9552,
      "##ዳደር": 9553,
      "አንዱ": 9554,
      "ቁጥር": 9555,
      "ስብ": 9556,
      "አሉ": 9557,
      "ሕዝብ": 9558,
      "##ቃል": 9559,
      "ሁለ": 9560,
      "##ካታ": 9561,
      "በመሆኑ": 9562,
      "##ክስ": 9563,
      "ኢን": 9564,
      "በጥ": 9565,
      "ለእ": 9566,
      "##ያኔ": 9567,
      "##ብረት": 9568,
      "##ጋል": 9569,
      "##ኘት": 9570,
      "##ያዊ": 9571,
      "##ውል": 9572,
      "ችግ": 9573,
      "አድ": 9574,
      "እንዳይ": 9575,
      "ድን": 9576,
      "ማህ": 9577,
      "ኮሚ": 9578,
      "##አዴ": 9579,
      "አማራ": 9580,
      "ከሆነ": 9581,
      "ቃል": 9582,
      "አያ": 9583,
      "ትምህርት": 9584,
      "ዘንድ": 9585,
      "ንግ": 9586,
      "##ውም": 9587,
      "##ልን": 9588,
      "አዳ": 9589,
      "ጨዋ": 9590,
      "##ጨረሻ": 9591,
      "##ሬት": 9592,
      "##ጠቃ": 9593,
      "እንደተ": 9594,
      "ሊያ": 9595,
      "##20": 9596,
      "የለም": 9597,
      "የዘ": 9598,
      "ማድረግ": 9599,
      "ለም": 9600,
      "ታሪክ": 9601,
      "የምት": 9602,
      "200": 9603,
      "##ግና": 9604,
      "##ቀረ": 9605,
      "አንዳ": 9606,
      "የፖለቲካ": 9607,
      "##ሳሌ": 9608,
      "##ከራ": 9609,
      "##ዝቡ": 9610,
      "##ካም": 9611,
      "ገን": 9612,
      "##ሠራ": 9613,
      "ይሁን": 9614,
      "እድ": 9615,
      "##በትን": 9616,
      "ዓመታት": 9617,
      "ዘመ": 9618,
      "መቀ": 9619,
      "##ታይ": 9620,
      "##ገደ": 9621,
      "በነ": 9622,
      "##ገሪቱ": 9623,
      "##ነስ": 9624,
      "ለሚ": 9625,
      "##ርነት": 9626,
      "##ሳቸው": 9627,
      "ምስ": 9628,
      "##ጋት": 9629,
      "ይሆ": 9630,
      "##ይማ": 9631,
      "በማለት": 9632,
      "##ንቀ": 9633,
      "የሚለው": 9634,
      "##ገነ": 9635,
      "##ጡት": 9636,
      "ይሆናል": 9637,
      "የባ": 9638,
      "አስፈ": 9639,
      "ተፈ": 9640,
      "እንቅ": 9641,
      "##ለማ": 9642,
      "የደ": 9643,
      "##ፉት": 9644,
      "ይገባ": 9645,
      "መሠ": 9646,
      "##ሰቡ": 9647,
      "##ገኘው": 9648,
      "ለተ": 9649,
      "ግብ": 9650,
      "##ፖርት": 9651,
      "ሙሉ": 9652,
      "በአንድ": 9653,
      "በኩል": 9654,
      "ተስፋ": 9655,
      "መሆን": 9656,
      "ምርጫ": 9657,
      "##ድሞ": 9658,
      "##ኮኖ": 9659,
      "##ሱስ": 9660,
      "ሀገር": 9661,
      "##ተን": 9662,
      "##ቻቸው": 9663,
      "##ናዊ": 9664,
      "##መሰ": 9665,
      "##ገቡ": 9666,
      "አሰ": 9667,
      "የተሰ": 9668,
      "##ይማኖ": 9669,
      "##ስታ": 9670,
      "##ጊዜ": 9671,
      "ብለው": 9672,
      "የብ": 9673,
      "በሁ": 9674,
      "በሙ": 9675,
      "አማ": 9676,
      "እንኳን": 9677,
      "ጥሩ": 9678,
      "##ሉን": 9679,
      "ፖሊ": 9680,
      "ተቃ": 9681,
      "ክፍል": 9682,
      "##ዛት": 9683,
      "አጋ": 9684,
      "ነዉ": 9685,
      "የተባ": 9686,
      "##ራን": 9687,
      "ድርጅት": 9688,
      "ጀምሮ": 9689,
      "##ተኞች": 9690,
      "የምን": 9691,
      "##ያዘ": 9692,
      "##ደራ": 9693,
      "መግለ": 9694,
      "##ጠት": 9695,
      "ጠቅላይ": 9696,
      "በህ": 9697,
      "መለ": 9698,
      "##ላችሁ": 9699,
      "##ብን": 9700,
      "##የው": 9701,
      "ወጣ": 9702,
      "የሆኑ": 9703,
      "ብለዋል": 9704,
      "##ሞክራሲ": 9705,
      "ተናግ": 9706,
      "##ላው": 9707,
      "19": 9708,
      "##ችው": 9709,
      "##ቻችን": 9710,
      "##ኖሩ": 9711,
      "##ኑን": 9712,
      "ውድ": 9713,
      "##ቤተ": 9714,
      "በው": 9715,
      "ጋዜ": 9716,
      "##ደረግ": 9717,
      "##የሱስ": 9718,
      "##ይና": 9719,
      "አገልግሎት": 9720,
      "አቅ": 9721,
      "##ነጋ": 9722,
      "##ቡብ": 9723,
      "##ምጃ": 9724,
      "ትን": 9725,
      "ስለዚህ": 9726,
      "##ወቅ": 9727,
      "##ጽሐፍ": 9728,
      "##ረም": 9729,
      "##ስና": 9730,
      "አለመ": 9731,
      "ቡድን": 9732,
      "##ፈጸ": 9733,
      "የለ": 9734,
      "##ፈር": 9735,
      "##ምንት": 9736,
      "##ልፍ": 9737,
      "ዕድ": 9738,
      "ለማስ": 9739,
      "የመንግ": 9740,
      "ግድ": 9741,
      "ድም": 9742,
      "##በብ": 9743,
      "ሚኒስትር": 9744,
      "ይገ": 9745,
      "##ደርግ": 9746,
      "##ሄድ": 9747,
      "##ማይ": 9748,
      "##ጠራ": 9749,
      "ምክር": 9750,
      "##ክተር": 9751,
      "በሚል": 9752,
      "ሲል": 9753,
      "##ባይ": 9754,
      "ስት": 9755,
      "##ሰቦች": 9756,
      "##ሳኔ": 9757,
      "##ቀጥ": 9758,
      "##ሖዋ": 9759,
      "ሁሉም": 9760,
      "የነበሩ": 9761,
      "##ስቃ": 9762,
      "የሀ": 9763,
      "ጨዋታ": 9764,
      "የጥ": 9765,
      "በግ": 9766,
      "ማዕ": 9767,
      "##ቅድ": 9768,
      "በታ": 9769,
      "##ልክ": 9770,
      "##ግኘት": 9771,
      "እንድ": 9772,
      "በ1": 9773,
      "##ጀት": 9774,
      "##አዴግ": 9775,
      "እግዚአብሔር": 9776,
      "##ቋል": 9777,
      "##ጥሮ": 9778,
      "##ጥታ": 9779,
      "የራ": 9780,
      "10": 9781,
      "በዓ": 9782,
      "ያሳ": 9783,
      "የሌ": 9784,
      "መሪ": 9785,
      "ወንድ": 9786,
      "ለምን": 9787,
      "በርካታ": 9788,
      "##ታደ": 9789,
      "በብ": 9790,
      "##ደረገው": 9791,
      "##ስን": 9792,
      "##ኒቨ": 9793,
      "ኃላፊ": 9794,
      "ካል": 9795,
      "ያለውን": 9796,
      "##ናው": 9797,
      "##ሻሻ": 9798,
      "##ዛሬ": 9799,
      "መብ": 9800,
      "ባን": 9801,
      "##ንቋ": 9802,
      "የል": 9803,
      "##ርሱ": 9804,
      "##ነትን": 9805,
      "##ጠቀም": 9806,
      "አዋ": 9807,
      "##ኛውም": 9808,
      "ግንባ": 9809,
      "መብት": 9810,
      "##ጋራ": 9811,
      "##ላጊ": 9812,
      "ኃይ": 9813,
      "##ስቃሴ": 9814,
      "ፖለቲካ": 9815,
      "##ያዝ": 9816,
      "##ርቶ": 9817,
      "##ዳንት": 9818,
      "ድጋ": 9819,
      "አመራ": 9820,
      "##ደርጉ": 9821,
      "የተለያዩ": 9822,
      "ይህንን": 9823,
      "ስን": 9824,
      "እንዳለ": 9825,
      "##ጠበቅ": 9826,
      "##ከሰ": 9827,
      "ነፃ": 9828,
      "##ነገ": 9829,
      "##ጎች": 9830,
      "##ዳር": 9831,
      "##ጠይ": 9832,
      "##በቃ": 9833,
      "መግለጫ": 9834,
      "##ሁኑ": 9835,
      "እጅግ": 9836,
      "በሕ": 9837,
      "##ነግ": 9838,
      "ሚሊዮን": 9839,
      "##ቂያ": 9840,
      "የኮ": 9841,
      "##ከፍ": 9842,
      "ባህ": 9843,
      "##መሳ": 9844,
      "##ኮኖሚ": 9845,
      "ተሰ": 9846,
      "##ሯል": 9847,
      "አፍ": 9848,
      "ይመስ": 9849,
      "##ትር": 9850,
      "##ዲህ": 9851,
      "ኢትዮጵያዊ": 9852,
      "##ረጋገ": 9853,
      "ተማሪ": 9854,
      "##ላዊ": 9855,
      "ጥቅም": 9856,
      "##ጠቅ": 9857,
      "በተጨማሪ": 9858,
      "ግንኙ": 9859,
      "ገንዘብ": 9860,
      "ዜና": 9861,
      "ተብሎ": 9862,
      "ጉባ": 9863,
      "እንቅስቃሴ": 9864,
      "##ጠብ": 9865,
      "##ችሉ": 9866,
      "ሰላም": 9867,
      "##ገራችን": 9868,
      "በፍ": 9869,
      "የነበረው": 9870,
      "##ቆጣ": 9871,
      "ከዚያ": 9872,
      "ትር": 9873,
      "መጥ": 9874,
      "አጥ": 9875,
      "##ለጠ": 9876,
      "በበ": 9877,
      "እንግ": 9878,
      "##ገት": 9879,
      "ዝግ": 9880,
      "##ተኛው": 9881,
      "ቅድ": 9882,
      "በኢ": 9883,
      "ቤቱ": 9884,
      "##ቦት": 9885,
      "መንግሥ": 9886,
      "አቀፍ": 9887,
      "##ቅና": 9888,
      "##ርትራ": 9889,
      "##er": 9890,
      "##ስራ": 9891,
      "##ሙያ": 9892,
      "የገ": 9893,
      "##ሮችን": 9894,
      "አለበት": 9895,
      "ልጆች": 9896,
      "##ነሱ": 9897,
      "##ረድ": 9898,
      "መንፈ": 9899,
      "ባል": 9900,
      "ውሳኔ": 9901,
      "##ሳተ": 9902,
      "ባይ": 9903,
      "የኦሮ": 9904,
      "##ለህ": 9905,
      "ዓይነት": 9906,
      "በዘ": 9907,
      "##ትም": 9908,
      "##ገብ": 9909,
      "በራ": 9910,
      "##መለከ": 9911,
      "##ቻል": 9912,
      "አመት": 9913,
      "##ሁንም": 9914,
      "አይነት": 9915,
      "##ቀመ": 9916,
      "ለዚህ": 9917,
      "##ቹን": 9918,
      "##ይን": 9919,
      "ሲሉ": 9920,
      "አባላት": 9921,
      "ግም": 9922,
      "ለማድረግ": 9923,
      "የመጀመሪያ": 9924,
      "##ሰር": 9925,
      "አምላክ": 9926,
      "በሙሉ": 9927,
      "##ሙን": 9928,
      "##ደረሰ": 9929,
      "ፍርድ": 9930,
      "ትልቅ": 9931,
      "አደጋ": 9932,
      "ሀገ": 9933,
      "ልብ": 9934,
      "##ግጥ": 9935,
      "መድረ": 9936,
      "ይዘ": 9937,
      "ያልተ": 9938,
      "ፍላ": 9939,
      "##ዋን": 9940,
      "አስተዳደር": 9941,
      "11": 9942,
      "አመ": 9943,
      "አንተ": 9944,
      "##ጠል": 9945,
      "ኃይል": 9946,
      "##ላን": 9947,
      "ገብ": 9948,
      "ብሔ": 9949,
      "##ለኝ": 9950,
      "ድጋፍ": 9951,
      "አክ": 9952,
      "##በታል": 9953,
      "ቤቶች": 9954,
      "ሺህ": 9955,
      "##ርሲ": 9956,
      "ያሉት": 9957,
      "##ሳል": 9958,
      "ለውጥ": 9959,
      "##ብራ": 9960,
      "መልካም": 9961,
      "##ነበር": 9962,
      "ሰብ": 9963,
      "ተናግረዋል": 9964,
      "በሀ": 9965,
      "##ፈት": 9966,
      "##ደን": 9967,
      "ጉዳዮች": 9968,
      "##ቋም": 9969,
      "ስሜ": 9970,
      "ግለ": 9971,
      "ከወ": 9972,
      "ተገ": 9973,
      "ዋጋ": 9974,
      "እርምጃ": 9975,
      "##ካባቢ": 9976,
      "##ናወ": 9977,
      "12": 9978,
      "ማሳ": 9979,
      "አሁንም": 9980,
      "##ላቸውን": 9981,
      "ነዋ": 9982,
      "ትኩ": 9983,
      "ሰዓት": 9984,
      "ይሰ": 9985,
      "##ከለ": 9986,
      "የሰው": 9987,
      "ኢየሱስ": 9988,
      "##ስቴ": 9989,
      "እሱ": 9990,
      "ቢሆንም": 9991,
      "##ርክ": 9992,
      "በማድረግ": 9993,
      "##ቃሚ": 9994,
      "##ክለ": 9995,
      "አንዳንድ": 9996,
      "##ከላከ": 9997,
      "ወንጀ": 9998,
      "መነ": 9999,
      "##ዳጅ": 10000,
      "##ደኛ": 10001,
      "የኤ": 10002,
      "ነጥ": 10003,
      "ስለሆነ": 10004,
      "##ብረተ": 10005,
      "በሽ": 10006,
      "##ናገር": 10007,
      "የሚገኙ": 10008,
      "##አት": 10009,
      "በመቶ": 10010,
      "ቋንቋ": 10011,
      "ቆይ": 10012,
      "##ተት": 10013,
      "##ጭት": 10014,
      "የአማራ": 10015,
      "##ሮና": 10016,
      "መሆና": 10017,
      "##መለስ": 10018,
      "##መልክ": 10019,
      "መሠረት": 10020,
      "##ሜን": 10021,
      "ድርጊ": 10022,
      "አህ": 10023,
      "በቅር": 10024,
      "እንደሚያ": 10025,
      "ግንኙነት": 10026,
      "ወጥ": 10027,
      "አስተያ": 10028,
      "ቀደም": 10029,
      "##ደርስ": 10030,
      "##ጠፋ": 10031,
      "##ሳዊ": 10032,
      "##ቀል": 10033,
      "##ብኝ": 10034,
      "በል": 10035,
      "ስል": 10036,
      "አሸ": 10037,
      "##በራዊ": 10038,
      "##ፈራ": 10039,
      "አካል": 10040,
      "ነገሮች": 10041,
      "መሰረት": 10042,
      "ብሄ": 10043,
      "ከባ": 10044,
      "ገበ": 10045,
      "##ክምና": 10046,
      "##ቂት": 10047,
      "የቆ": 10048,
      "##ጣል": 10049,
      "##ዚሁ": 10050,
      "##ደግ": 10051,
      "##መለከተ": 10052,
      "##ከተማ": 10053,
      "ደር": 10054,
      "##ይይት": 10055,
      "አልተ": 10056,
      "ታላ": 10057,
      "##ህአዴግ": 10058,
      "##ሶች": 10059,
      "ዩኒቨ": 10060,
      "##ጠሩ": 10061,
      "##ናቸው": 10062,
      "በአዲስ": 10063,
      "ይገባል": 10064,
      "አድርጎ": 10065,
      "##ወስ": 10066,
      "ፍላጎ": 10067,
      "ፕሬዚ": 10068,
      "##ርስቶ": 10069,
      "ቅር": 10070,
      "ክርስቲያን": 10071,
      "##ርሲቲ": 10072,
      "ይልቅ": 10073,
      "##ጠቃላይ": 10074,
      "ይህም": 10075,
      "ከነ": 10076,
      "ልማት": 10077,
      "በተለያዩ": 10078,
      "መደ": 10079,
      "በድ": 10080,
      "##ባብ": 10081,
      "ውጤት": 10082,
      "በረ": 10083,
      "እስካ": 10084,
      "ያላቸው": 10085,
      "እኮ": 10086,
      "መው": 10087,
      "ኦሮ": 10088,
      "15": 10089,
      "##መሳሳይ": 10090,
      "##ስብ": 10091,
      "##ይማኖት": 10092,
      "##ፍራ": 10093,
      "##ማን": 10094,
      "አስፈላጊ": 10095,
      "መጽሐፍ": 10096,
      "ህዝ": 10097,
      "ማኅ": 10098,
      "አፍሪካ": 10099,
      "##ለመ": 10100,
      "##ላሽ": 10101,
      "አሜሪካ": 10102,
      "##ስቱ": 10103,
      "ፍቅር": 10104,
      "መቶ": 10105,
      "መመ": 10106,
      "አለው": 10107,
      "##ናን": 10108,
      "##ሙት": 10109,
      "ቡድ": 10110,
      "አስታው": 10111,
      "ግል": 10112,
      "##ስር": 10113,
      "የዓለም": 10114,
      "##ከብ": 10115,
      "##ኩት": 10116,
      "##ጠኛ": 10117,
      "##ትል": 10118,
      "የሞ": 10119,
      "##ዕራ": 10120,
      "እውነ": 10121,
      "##ፖር": 10122,
      "##ከናወ": 10123,
      "መልኩ": 10124,
      "ከ1": 10125,
      "##ፈን": 10126,
      "የውጭ": 10127,
      "ማስተ": 10128,
      "##ቆም": 10129,
      "መታ": 10130,
      "ፈቃ": 10131,
      "ጥረት": 10132,
      "ሆነው": 10133,
      "##ንብ": 10134,
      "ከሌ": 10135,
      "##io": 10136,
      "##ደጋ": 10137,
      "##ሃት": 10138,
      "##ችልም": 10139,
      "##ባዊ": 10140,
      "የፌ": 10141,
      "##ለቱ": 10142,
      "##ገንዘብ": 10143,
      "ሕግ": 10144,
      "ነኝ": 10145,
      "ሊሆን": 10146,
      "##ጣሪ": 10147,
      "##ጠናቀ": 10148,
      "##ጅት": 10149,
      "##ገኛ": 10150,
      "##ከላከያ": 10151,
      "##ጤና": 10152,
      "##ጀር": 10153,
      "የፍ": 10154,
      "እዚህ": 10155,
      "መዝ": 10156,
      "##ረተ": 10157,
      "ስብሰባ": 10158,
      "##ላር": 10159,
      "##ሊዝ": 10160,
      "መም": 10161,
      "ስለሚ": 10162,
      "##ንካ": 10163,
      "ወያኔ": 10164,
      "ገልጸ": 10165,
      "##ሊያ": 10166,
      "ይላል": 10167,
      "##ፈልግ": 10168,
      "##ነትና": 10169,
      "የክ": 10170,
      "የለው": 10171,
      "##ጠየ": 10172,
      "የካ": 10173,
      "ባለሙያ": 10174,
      "##ቀበ": 10175,
      "ወረ": 10176,
      "ከሁ": 10177,
      "ዙሪያ": 10178,
      "##ቅረብ": 10179,
      "የጎ": 10180,
      "ተደር": 10181,
      "መድ": 10182,
      "##ሻለ": 10183,
      "##ያል": 10184,
      "በሌላ": 10185,
      "##ከታ": 10186,
      "##ለውን": 10187,
      "##ወር": 10188,
      "##ውሮ": 10189,
      "##ቀስ": 10190,
      "ክል": 10191,
      "ጨምሮ": 10192,
      "ምክንያቱም": 10193,
      "##ዛዝ": 10194,
      "##ረጥ": 10195,
      "ካለ": 10196,
      "ውጭ": 10197,
      "እምነት": 10198,
      "ርዕ": 10199,
      "ጉባኤ": 10200,
      "የሃ": 10201,
      "##ጫወ": 10202,
      "##የን": 10203,
      "የሁ": 10204,
      "ከሰ": 10205,
      "በመስ": 10206,
      "##ንጫ": 10207,
      "እንዳል": 10208,
      "ንጉ": 10209,
      "##ወሓ": 10210,
      "በማስ": 10211,
      "ገለ": 10212,
      "በጎ": 10213,
      "ብዬ": 10214,
      "##ንደር": 10215,
      "መጠን": 10216,
      "##ኞቹ": 10217,
      "በሆነ": 10218,
      "አማካ": 10219,
      "ይዞ": 10220,
      "አፈ": 10221,
      "##ንፈ": 10222,
      "መንገ": 10223,
      "##ውሞ": 10224,
      "ተጨማሪ": 10225,
      "##ሃን": 10226,
      "የአዲስ": 10227,
      "##ውና": 10228,
      "ነበረ": 10229,
      "መሬት": 10230,
      "መፍት": 10231,
      "##ላማዊ": 10232,
      "##ማቸው": 10233,
      "ኮሚቴ": 10234,
      "##ታወቀ": 10235,
      "ሚኒስቴ": 10236,
      "የትግራይ": 10237,
      "ቀጥ": 10238,
      "##ረበ": 10239,
      "በአሁኑ": 10240,
      "መሳ": 10241,
      "ይችላሉ": 10242,
      "ወገ": 10243,
      "##ባንያ": 10244,
      "##ርያም": 10245,
      "##te": 10246,
      "##ያዙ": 10247,
      "##መቱ": 10248,
      "##ገማ": 10249,
      "##ዘር": 10250,
      "##ዲዮ": 10251,
      "ትክ": 10252,
      "##ርስቶስ": 10253,
      "##ዳት": 10254,
      "##ዘጋጀ": 10255,
      "##ሳቸውን": 10256,
      "##ዉን": 10257,
      "ያደር": 10258,
      "##ጣሚ": 10259,
      "ሕይወት": 10260,
      "ጦርነት": 10261,
      "ዶክተር": 10262,
      "ኳስ": 10263,
      "የሆነው": 10264,
      "ተቋማት": 10265,
      "ነፍ": 10266,
      "አቅር": 10267,
      "##ሰን": 10268,
      "##ከፋ": 10269,
      "##ቾች": 10270,
      "ዶላር": 10271,
      "##ኗል": 10272,
      "##ሰጥ": 10273,
      "##ቁት": 10274,
      "##ማል": 10275,
      "ሰጥ": 10276,
      "አብይ": 10277,
      "በእር": 10278,
      "##ነቱን": 10279,
      "##ንቀሳ": 10280,
      "ኢትዮጵያውያን": 10281,
      "##ሰሩ": 10282,
      "##ካል": 10283,
      "እውነት": 10284,
      "##ከላከል": 10285,
      "በይ": 10286,
      "##ዋሚ": 10287,
      "##ገባው": 10288,
      "##ክልሉ": 10289,
      "##ኖረው": 10290,
      "##ጠን": 10291,
      "በክ": 10292,
      "2012": 10293,
      "ባለፈው": 10294,
      "##ላችን": 10295,
      "ወጣቶች": 10296,
      "እናም": 10297,
      "##ዳል": 10298,
      "ሳምንት": 10299,
      "ድርጅቶች": 10300,
      "##ፈፀ": 10301,
      "##ንግድ": 10302,
      "ደስ": 10303,
      "ነጋ": 10304,
      "ከም": 10305,
      "ቢሮ": 10306,
      "##ነዚህ": 10307,
      "##ሞት": 10308,
      "ወረዳ": 10309,
      "አባል": 10310,
      "ተከት": 10311,
      "##ስማ": 10312,
      "የምር": 10313,
      "##ፎች": 10314,
      "በባ": 10315,
      "##ዝር": 10316,
      "ሴቶች": 10317,
      "ፖሊስ": 10318,
      "ይቻ": 10319,
      "ትኩረት": 10320,
      "ገና": 10321,
      "ልክ": 10322,
      "ቀር": 10323,
      "ተግባር": 10324,
      "ገጽ": 10325,
      "ማለ": 10326,
      "ክርስቲያ": 10327,
      "ተጫ": 10328,
      "ጥቃት": 10329,
      "ብል": 10330,
      "ነበሩ": 10331,
      "##ቶቹ": 10332,
      "ሕዝ": 10333,
      "በግል": 10334,
      "ይታወ": 10335,
      "ስላ": 10336,
      "ዜጎች": 10337,
      "14": 10338,
      "ግንባታ": 10339,
      "##ጣቸው": 10340,
      "ይሆን": 10341,
      "##ሱም": 10342,
      "##ባሉ": 10343,
      "##ዱት": 10344,
      "ሚኒስቴር": 10345,
      "##ሎጂ": 10346,
      "ዳር": 10347,
      "ያስፈል": 10348,
      "##ደል": 10349,
      "ሴት": 10350,
      "ሆኖም": 10351,
      "##ዱን": 10352,
      "ቀናት": 10353,
      "አራት": 10354,
      "ፍት": 10355,
      "##ጉም": 10356,
      "መልስ": 10357,
      "ናት": 10358,
      "##ምህር": 10359,
      "ይቻላል": 10360,
      "##ጅም": 10361,
      "##ሪቃ": 10362,
      "በቁ": 10363,
      "መተ": 10364,
      "##ዳሚ": 10365,
      "የድ": 10366,
      "13": 10367,
      "##ar": 10368,
      "##ጋቸው": 10369,
      "##ወጥ": 10370,
      "##ራሽ": 10371,
      "##ያቸው": 10372,
      "ዓላማ": 10373,
      "በተመለከተ": 10374,
      "##ባለው": 10375,
      "ኩባንያ": 10376,
      "##ዳታ": 10377,
      "ግምገማ": 10378,
      "ይሖዋ": 10379,
      "እራ": 10380,
      "##th": 10381,
      "##ጥጥር": 10382,
      "ጉዳት": 10383,
      "##ዎችና": 10384,
      "##ይረስ": 10385,
      "##ርስዎ": 10386,
      "##ሰት": 10387,
      "እያለ": 10388,
      "ነጻ": 10389,
      "##ምፒ": 10390,
      "##ፍን": 10391,
      "##ጋሚ": 10392,
      "አምስት": 10393,
      "##ደገ": 10394,
      "##ተና": 10395,
      "በቅ": 10396,
      "##ቀም": 10397,
      "##ውልድ": 10398,
      "##ወሓት": 10399,
      "ሌላው": 10400,
      "እስኪ": 10401,
      "##ባሪ": 10402,
      "የሙ": 10403,
      "ሥርዓት": 10404,
      "ተመል": 10405,
      "እንደማይ": 10406,
      "ገልጸዋል": 10407,
      "##ገናኛ": 10408,
      "##ንደ": 10409,
      "##ንድን": 10410,
      "ለመስ": 10411,
      "አግ": 10412,
      "ውይይት": 10413,
      "አገሮች": 10414,
      "ወታደ": 10415,
      "አብዛ": 10416,
      "18": 10417,
      "ደም": 10418,
      "##ታማ": 10419,
      "ምላሽ": 10420,
      "የምና": 10421,
      "##ዘን": 10422,
      "የኦሮሞ": 10423,
      "ፕሮጀ": 10424,
      "##ከበር": 10425,
      "አቅም": 10426,
      "መፍ": 10427,
      "##ሃል": 10428,
      "##ካሄድ": 10429,
      "##ቡት": 10430,
      "##ወጡ": 10431,
      "ፊት": 10432,
      "አውሮ": 10433,
      "##ጦር": 10434,
      "16": 10435,
      "##200": 10436,
      "ጦር": 10437,
      "በ19": 10438,
      "##ጓል": 10439,
      "##መም": 10440,
      "##ለየ": 10441,
      "##ፈረ": 10442,
      "##ጋቢ": 10443,
      "ፕሮግራ": 10444,
      "##ሸነ": 10445,
      "የአፍሪካ": 10446,
      "ይታ": 10447,
      "ወል": 10448,
      "እም": 10449,
      "##ቀዋል": 10450,
      "አልነበረ": 10451,
      "##ደብ": 10452,
      "ወጣት": 10453,
      "የሥራ": 10454,
      "ተጠቃሚ": 10455,
      "##በረሰብ": 10456,
      "ያው": 10457,
      "የተነሳ": 10458,
      "##ሎችን": 10459,
      "##ጠረ": 10460,
      "##ሰበ": 10461,
      "##ከፈ": 10462,
      "##ያንዳን": 10463,
      "በዓለም": 10464,
      "ስሜት": 10465,
      "ብሔራዊ": 10466,
      "##ግባር": 10467,
      "ድል": 10468,
      "ነጥብ": 10469,
      "##ia": 10470,
      "ተራ": 10471,
      "በተለይም": 10472,
      "##ጣው": 10473,
      "ሊቀ": 10474,
      "እንደነበር": 10475,
      "30": 10476,
      "ትግል": 10477,
      "##ቧል": 10478,
      "ዩኒቨርሲቲ": 10479,
      "ደጋ": 10480,
      "ለህ": 10481,
      "ለምሳሌ": 10482,
      "የስራ": 10483,
      "እስካሁን": 10484,
      "##አል": 10485,
      "ህግ": 10486,
      "ተዋ": 10487,
      "ጤና": 10488,
      "በጉ": 10489,
      "##ንቅ": 10490,
      "ባንክ": 10491,
      "ዝም": 10492,
      "ከባድ": 10493,
      "##ራም": 10494,
      "##በሩት": 10495,
      "በኮ": 10496,
      "##ጠኝ": 10497,
      "##ያት": 10498,
      "##ቡር": 10499,
      "የሚመ": 10500,
      "##ጣን": 10501,
      "##ኮች": 10502,
      "##ቡን": 10503,
      "##ስትና": 10504,
      "በቅርቡ": 10505,
      "##ጋሪ": 10506,
      "የቀድሞ": 10507,
      "ሂደት": 10508,
      "ይቅር": 10509,
      "አካላት": 10510,
      "ጥር": 10511,
      "##ንቲ": 10512,
      "##ቻቸውን": 10513,
      "በዚህም": 10514,
      "##ንታ": 10515,
      "ችግሮች": 10516,
      "##ቅረ": 10517,
      "ተከትሎ": 10518,
      "መሥ": 10519,
      "የቅ": 10520,
      "ገቢ": 10521,
      "ፕሬዝ": 10522,
      "ምድር": 10523,
      "##ኪና": 10524,
      "##ገዛ": 10525,
      "##ዲሱ": 10526,
      "የሚቆ": 10527,
      "##ችሁን": 10528,
      "##ማርኛ": 10529,
      "መዋ": 10530,
      "ልጆ": 10531,
      "##ቂቃ": 10532,
      "##ዳደ": 10533,
      "##ምላክ": 10534,
      "17": 10535,
      "##ደረጉት": 10536,
      "##ሱት": 10537,
      "በሚያ": 10538,
      "ዞን": 10539,
      "ዘርፍ": 10540,
      "##ጀመር": 10541,
      "ተማሪዎች": 10542,
      "##ልቁ": 10543,
      "##ጋይ": 10544,
      "ባለው": 10545,
      "ወንጀል": 10546,
      "##ኞችን": 10547,
      "ጀር": 10548,
      "ይገኛል": 10549,
      "ተገቢ": 10550,
      "##በልጥ": 10551,
      "አስተያየት": 10552,
      "##ገበ": 10553,
      "አምባ": 10554,
      "##ንባ": 10555,
      "ፍላጎት": 10556,
      "ስታ": 10557,
      "የአሜሪካ": 10558,
      "##በላ": 10559,
      "የሚታ": 10560,
      "##ከፍተኛ": 10561,
      "መንግስ": 10562,
      "ለሁ": 10563,
      "በሃ": 10564,
      "ክለ": 10565,
      "የተቀ": 10566,
      "ስድ": 10567,
      "ባለስ": 10568,
      "##የም": 10569,
      "ከስ": 10570,
      "መግ": 10571,
      "የጤና": 10572,
      "##ራዊት": 10573,
      "##ክኖ": 10574,
      "የመንግስት": 10575,
      "##ነታቸው": 10576,
      "ብለን": 10577,
      "##ታችንን": 10578,
      "አህመድ": 10579,
      "የተወሰ": 10580,
      "መኖ": 10581,
      "##ንቃ": 10582,
      "##ልኝ": 10583,
      "##ስቶ": 10584,
      "የህዝብ": 10585,
      "##ፈልጉ": 10586,
      "ለወ": 10587,
      "##ላቀ": 10588,
      "##ሞክራሲያዊ": 10589,
      "##ሳሰብ": 10590,
      "ፕሬዚዳንት": 10591,
      "##ንነት": 10592,
      "##ጋዊ": 10593,
      "##ችላ": 10594,
      "##ቱት": 10595,
      "##ፊያ": 10596,
      "##ባቸውን": 10597,
      "##የሁ": 10598,
      "ጌታ": 10599,
      "ሰር": 10600,
      "##ጥረት": 10601,
      "##ያይ": 10602,
      "መሪዎች": 10603,
      "መልዕ": 10604,
      "##in": 10605,
      "ወራት": 10606,
      "የፀ": 10607,
      "በዋ": 10608,
      "25": 10609,
      "ኢትዮጵያን": 10610,
      "የዚህ": 10611,
      "ባለመ": 10612,
      "##ዝና": 10613,
      "ተመ": 10614,
      "##ልና": 10615,
      "ቅድሚያ": 10616,
      "የቤተ": 10617,
      "##በትም": 10618,
      "##ርማ": 10619,
      "ያላ": 10620,
      "የኦ": 10621,
      "##ጨዋ": 10622,
      "##ክርስቲ": 10623,
      "ጥናት": 10624,
      "አለም": 10625,
      "##ካት": 10626,
      "አንዳን": 10627,
      "ይላሉ": 10628,
      "##ድሮ": 10629,
      "##ሩም": 10630,
      "ይኖር": 10631,
      "ጥሪ": 10632,
      "ዝር": 10633,
      "አረ": 10634,
      "##ረዳት": 10635,
      "##ለቀ": 10636,
      "ደብ": 10637,
      "##በኛ": 10638,
      "##ፍና": 10639,
      "መቼ": 10640,
      "##201": 10641,
      "##ቀርብ": 10642,
      "የተሻለ": 10643,
      "በቂ": 10644,
      "የሚሰጡ": 10645,
      "ክብር": 10646,
      "##ነበ": 10647,
      "ወዳ": 10648,
      "##ዎን": 10649,
      "##ሳሉ": 10650,
      "##ሰድ": 10651,
      "##ዳማ": 10652,
      "አስተዋ": 10653,
      "##ካባቢው": 10654,
      "ጉዞ": 10655,
      "##ገረ": 10656,
      "በወቅ": 10657,
      "የዋ": 10658,
      "ደቂቃ": 10659,
      "##ከረ": 10660,
      "ህይወት": 10661,
      "የአንድ": 10662,
      "##ንካራ": 10663,
      "ግብር": 10664,
      "##ቃወ": 10665,
      "ትንሽ": 10666,
      "ህገ": 10667,
      "በሽታ": 10668,
      "##ፈጠረ": 10669,
      "እንደም": 10670,
      "##ንጀ": 10671,
      "##ዱስት": 10672,
      "ለማሳ": 10673,
      "##ዘጋጅ": 10674,
      "##ጀመረ": 10675,
      "የንግድ": 10676,
      "ትግ": 10677,
      "##ገዋል": 10678,
      "የይ": 10679,
      "##መንግ": 10680,
      "##ራንስ": 10681,
      "ውጪ": 10682,
      "##ኛውን": 10683,
      "ስምምነት": 10684,
      "የትምህርት": 10685,
      "አንድነት": 10686,
      "ለማግኘት": 10687,
      "ተሳ": 10688,
      "##ላላ": 10689,
      "##ዳዳ": 10690,
      "ተቃውሞ": 10691,
      "የግል": 10692,
      "ለብ": 10693,
      "##or": 10694,
      "##ጭር": 10695,
      "ልም": 10696,
      "አየር": 10697,
      "##ዘው": 10698,
      "##ዩን": 10699,
      "##ቆጣጠር": 10700,
      "ነን": 10701,
      "መንፈስ": 10702,
      "የፓ": 10703,
      "##ከታተ": 10704,
      "##ኝም": 10705,
      "##ራሉ": 10706,
      "##ችለው": 10707,
      "##ካሄደ": 10708,
      "##ሳን": 10709,
      "ይፋ": 10710,
      "##ጮች": 10711,
      "መሆናቸውን": 10712,
      "##መዘ": 10713,
      "ለኢትዮጵያ": 10714,
      "የዕ": 10715,
      "አጋጣሚ": 10716,
      "##መና": 10717,
      "የሚፈ": 10718,
      "የቻ": 10719,
      "ሦስት": 10720,
      "መጣ": 10721,
      "##ዳቸው": 10722,
      "የፈ": 10723,
      "##ዚቃ": 10724,
      "በተጨማሪም": 10725,
      "የፕ": 10726,
      "##ቦችን": 10727,
      "ንብረት": 10728,
      "##ጣጫ": 10729,
      "24": 10730,
      "ስርዓት": 10731,
      "ማንም": 10732,
      "##ክኖሎጂ": 10733,
      "##ርቅ": 10734,
      "##ያያዘ": 10735,
      "ተጫዋ": 10736,
      "ውሃ": 10737,
      "##ሬሽን": 10738,
      "##መለከት": 10739,
      "##ያቂ": 10740,
      "እግር": 10741,
      "ሜትር": 10742,
      "##ማሽ": 10743,
      "እናንተ": 10744,
      "ስልጣን": 10745,
      "##ነኛ": 10746,
      "ቢያ": 10747,
      "ንግግር": 10748,
      "##ግባት": 10749,
      "##ዓዊ": 10750,
      "##ሷል": 10751,
      "ጽሑ": 10752,
      "ከው": 10753,
      "##ሳቢ": 10754,
      "##ወለ": 10755,
      "አዳዲስ": 10756,
      "##ቁር": 10757,
      "##ፖሊ": 10758,
      "ምል": 10759,
      "ግንቦት": 10760,
      "##በዋል": 10761,
      "##ህና": 10762,
      "##አዊ": 10763,
      "ማግኘት": 10764,
      "የለውም": 10765,
      "የሥ": 10766,
      "በመሆኑም": 10767,
      "##ሎስ": 10768,
      "ኤፍ": 10769,
      "ዳይ": 10770,
      "##ጣይ": 10771,
      "የሚለውን": 10772,
      "ስደ": 10773,
      "ባሕ": 10774,
      "ሕገ": 10775,
      "አልፎ": 10776,
      "ሠራ": 10777,
      "አገልግሎ": 10778,
      "ከበ": 10779,
      "##ሳሰ": 10780,
      "##ናገሩ": 10781,
      "ጥላ": 10782,
      "ባለፉት": 10783,
      "##ኳይ": 10784,
      "##ንጉ": 10785,
      "##ምባ": 10786,
      "ኢህአዴግ": 10787,
      "በስተ": 10788,
      "##ዳሴ": 10789,
      "ዘገባ": 10790,
      "##ኪያ": 10791,
      "##ጿል": 10792,
      "##ዋር": 10793,
      "ማስታወ": 10794,
      "የጋራ": 10795,
      "አልነበረም": 10796,
      "እንዲሆን": 10797,
      "##መለካ": 10798,
      "##ውሮፓ": 10799,
      "27": 10800,
      "አራ": 10801,
      "ንግድ": 10802,
      "ኦሮሞ": 10803,
      "አድርገው": 10804,
      "መለስ": 10805,
      "የሚችል": 10806,
      "ሱዳን": 10807,
      "##መዋል": 10808,
      "ሶስት": 10809,
      "##ረታዊ": 10810,
      "##ደርገው": 10811,
      "መልክ": 10812,
      "ትውልድ": 10813,
      "ህዝቡ": 10814,
      "ታው": 10815,
      "መጨረሻ": 10816,
      "##ቸኳይ": 10817,
      "በዓል": 10818,
      "የሚያሳ": 10819,
      "ብሏል": 10820,
      "21": 10821,
      "ምክትል": 10822,
      "ሆኗል": 10823,
      "##ታን": 10824,
      "##ገሩ": 10825,
      "##ናገራ": 10826,
      "##ነበረው": 10827,
      "የበላይ": 10828,
      "##ስሊ": 10829,
      "ታዲያ": 10830,
      "##ክሮ": 10831,
      "ትዕ": 10832,
      "ሰነ": 10833,
      "አመራር": 10834,
      "ለዘ": 10835,
      "ልማ": 10836,
      "ክርስቶስ": 10837,
      "ዝግጅት": 10838,
      "በኦሮ": 10839,
      "ተጋ": 10840,
      "ከዚያም": 10841,
      "##ግም": 10842,
      "##ሌክት": 10843,
      "##ለፍ": 10844,
      "ባለቤት": 10845,
      "##ዲት": 10846,
      "ፈቃድ": 10847,
      "##መጡ": 10848,
      "##ሻሻል": 10849,
      "ጠንካራ": 10850,
      "##በራ": 10851,
      "በመንግ": 10852,
      "ከአንድ": 10853,
      "መነሻ": 10854,
      "##ዊት": 10855,
      "ክስ": 10856,
      "##ሟል": 10857,
      "##ረጋገጥ": 10858,
      "##ፈና": 10859,
      "ያስተ": 10860,
      "##ጥነት": 10861,
      "ተከታ": 10862,
      "##ቢይ": 10863,
      "የሽ": 10864,
      "##ብዛ": 10865,
      "ሚዲያ": 10866,
      "ጭምር": 10867,
      "##ነር": 10868,
      "ምርመራ": 10869,
      "ምግብ": 10870,
      "ይኖ": 10871,
      "##ዩት": 10872,
      "ሚኒስትሩ": 10873,
      "የበለጠ": 10874,
      "መኖር": 10875,
      "##thio": 10876,
      "ታላቅ": 10877,
      "##ካሄደው": 10878,
      "##ነቶች": 10879,
      "እንድት": 10880,
      "##ኒያ": 10881,
      "ተመሳሳይ": 10882,
      "ከታ": 10883,
      "##ስፒ": 10884,
      "ግጭት": 10885,
      "##ቋቋ": 10886,
      "በመሆን": 10887,
      "##en": 10888,
      "ግምገማዎች": 10889,
      "##ናገሩት": 10890,
      "##ጥፋት": 10891,
      "በበኩ": 10892,
      "መድረክ": 10893,
      "ከኢትዮጵያ": 10894,
      "አወ": 10895,
      "ትግራይ": 10896,
      "##ዳም": 10897,
      "አመታት": 10898,
      "##om": 10899,
      "##ሴቶች": 10900,
      "##ረር": 10901,
      "##ገለጸ": 10902,
      "##ራው": 10903,
      "አንቀ": 10904,
      "ለመቀ": 10905,
      "መሳሪያ": 10906,
[...]
